#include "person_detect_model_data.h" 
#ifdef __has_attribute 
#define HAVE_ATTRIBUTE(x) __has_attribute(x) 
#else 
#define HAVE_ATTRIBUTE(x) 0 
#endif 
#if HAVE_ATTRIBUTE(aligned) || (defined(__GNUC__) && !defined(__clang__)) 
#define DATA_ALIGN_ATTRIBUTE __attribute__((aligned(4))) 
#else 
#define DATA_ALIGN_ATTRIBUTE 
#endif 
const unsigned char g_person_detect_model_data[] DATA_ALIGN_ATTRIBUTE = {
  0x1c, 0x00, 0x00, 0x00, 0x54, 0x46, 0x4c, 0x33, 0x14, 0x00, 0x20, 0x00,
  0x1c, 0x00, 0x18, 0x00, 0x14, 0x00, 0x10, 0x00, 0x0c, 0x00, 0x00, 0x00,
  0x08, 0x00, 0x04, 0x00, 0x14, 0x00, 0x00, 0x00, 0x1c, 0x00, 0x00, 0x00,
  0x1c, 0x00, 0x00, 0x00, 0x4c, 0x00, 0x00, 0x00, 0x38, 0x06, 0x00, 0x00,
  0x48, 0x06, 0x00, 0x00, 0x1c, 0x2a, 0x00, 0x00, 0x03, 0x00, 0x00, 0x00,
  0x00, 0x00, 0x00, 0x00, 0x01, 0x00, 0x00, 0x00, 0x0c, 0x00, 0x00, 0x00,
  0x08, 0x00, 0x0c, 0x00, 0x08, 0x00, 0x04, 0x00, 0x08, 0x00, 0x00, 0x00,
  0x2d, 0x00, 0x00, 0x00, 0x04, 0x00, 0x00, 0x00, 0x13, 0x00, 0x00, 0x00,
  0x6d, 0x69, 0x6e, 0x5f, 0x72, 0x75, 0x6e, 0x74, 0x69, 0x6d, 0x65, 0x5f,
  0x76, 0x65, 0x72, 0x73, 0x69, 0x6f, 0x6e, 0x00, 0x2e, 0x00, 0x00, 0x00,
  0xe8, 0x05, 0x00, 0x00, 0xe0, 0x05, 0x00, 0x00, 0xc8, 0x05, 0x00, 0x00,
  0xa4, 0x05, 0x00, 0x00, 0x90, 0x05, 0x00, 0x00, 0x74, 0x05, 0x00, 0x00,
  0x60, 0x05, 0x00, 0x00, 0x4c, 0x05, 0x00, 0x00, 0x2c, 0x05, 0x00, 0x00,
  0x0c, 0x05, 0x00, 0x00, 0xec, 0x04, 0x00, 0x00, 0xb8, 0x04, 0x00, 0x00,
  0x98, 0x04, 0x00, 0x00, 0x70, 0x04, 0x00, 0x00, 0x48, 0x04, 0x00, 0x00,
  0x14, 0x04, 0x00, 0x00, 0xec, 0x03, 0x00, 0x00, 0xa4, 0x03, 0x00, 0x00,
  0x7c, 0x03, 0x00, 0x00, 0x48, 0x03, 0x00, 0x00, 0x20, 0x03, 0x00, 0x00,
  0xec, 0x02, 0x00, 0x00, 0xc4, 0x02, 0x00, 0x00, 0xf4, 0x01, 0x00, 0x00,
  0x64, 0x01, 0x00, 0x00, 0xd4, 0x00, 0x00, 0x00, 0xb4, 0x00, 0x00, 0x00,
  0xac, 0x00, 0x00, 0x00, 0xa4, 0x00, 0x00, 0x00, 0x9c, 0x00, 0x00, 0x00,
  0x94, 0x00, 0x00, 0x00, 0x8c, 0x00, 0x00, 0x00, 0x84, 0x00, 0x00, 0x00,
  0x7c, 0x00, 0x00, 0x00, 0x74, 0x00, 0x00, 0x00, 0x6c, 0x00, 0x00, 0x00,
  0x64, 0x00, 0x00, 0x00, 0x5c, 0x00, 0x00, 0x00, 0x54, 0x00, 0x00, 0x00,
  0x4c, 0x00, 0x00, 0x00, 0x44, 0x00, 0x00, 0x00, 0x3c, 0x00, 0x00, 0x00,
  0x34, 0x00, 0x00, 0x00, 0x2c, 0x00, 0x00, 0x00, 0x24, 0x00, 0x00, 0x00,
  0x04, 0x00, 0x00, 0x00, 0x6a, 0xf6, 0xff, 0xff, 0x04, 0x00, 0x00, 0x00,
  0x10, 0x00, 0x00, 0x00, 0x31, 0x2e, 0x31, 0x34, 0x2e, 0x30, 0x00, 0x00,
  0x00, 0x00, 0x00, 0x00, 0x00, 0x00, 0x00, 0x00, 0xd4, 0xd7, 0xff, 0xff,
  0xd8, 0xd7, 0xff, 0xff, 0xdc, 0xd7, 0xff, 0xff, 0xe0, 0xd7, 0xff, 0xff,
  0xe4, 0xd7, 0xff, 0xff, 0xe8, 0xd7, 0xff, 0xff, 0xec, 0xd7, 0xff, 0xff,
  0xf0, 0xd7, 0xff, 0xff, 0xf4, 0xd7, 0xff, 0xff, 0xf8, 0xd7, 0xff, 0xff,
  0xfc, 0xd7, 0xff, 0xff, 0x00, 0xd8, 0xff, 0xff, 0x04, 0xd8, 0xff, 0xff,
  0x08, 0xd8, 0xff, 0xff, 0x0c, 0xd8, 0xff, 0xff, 0x10, 0xd8, 0xff, 0xff,
  0x14, 0xd8, 0xff, 0xff, 0x18, 0xd8, 0xff, 0xff, 0xce, 0xf6, 0xff, 0xff,
  0x04, 0x00, 0x00, 0x00, 0x10, 0x00, 0x00, 0x00, 0x1a, 0xff, 0xff, 0xff,
  0x5f, 0xf9, 0xff, 0xff, 0xd0, 0x0d, 0x00, 0x00, 0xdf, 0xf9, 0xff, 0xff,
  0xea, 0xf6, 0xff, 0xff, 0x04, 0x00, 0x00, 0x00, 0x80, 0x00, 0x00, 0x00,
  0xc6, 0xbf, 0x13, 0x14, 0xf2, 0x12, 0x11, 0xad, 0x28, 0xf8, 0x2d, 0x1d,
  0x0d, 0x09, 0x09, 0x30, 0x0c, 0xf5, 0xdc, 0x17, 0xfd, 0xc2, 0x03, 0x1d,
  0x07, 0x15, 0xa8, 0x18, 0xba, 0xf8, 0x14, 0xe5, 0x0c, 0x03, 0xfc, 0x02,
  0x10, 0xf8, 0x12, 0x0a, 0xc4, 0xc9, 0x10, 0x29, 0x0a, 0x09, 0xf9, 0x0e,
  0x03, 0xff, 0xbe, 0x17, 0xb8, 0x13, 0xf8, 0xb4, 0x29, 0x19, 0xfc, 0x1c,
  0x15, 0x09, 0xb0, 0x21, 0x0f, 0x05, 0xad, 0xb1, 0xf1, 0xc6, 0xc0, 0x08,
  0x81, 0x1c, 0xbf, 0xea, 0xbc, 0xba, 0xf1, 0xc7, 0x0a, 0x0d, 0x1d, 0xaf,
  0x1a, 0x0f, 0xf0, 0xeb, 0x11, 0xa3, 0x09, 0xc3, 0x0c, 0x04, 0x12, 0x16,
  0x0a, 0x03, 0x07, 0x11, 0x03, 0x09, 0x08, 0x01, 0x17, 0x1f, 0xf6, 0xdd,
  0x08, 0x03, 0xfc, 0xe4, 0x0d, 0xfc, 0x1e, 0x02, 0x1c, 0x09, 0xfb, 0x03,
  0xb1, 0xf8, 0x0a, 0xeb, 0x02, 0x07, 0x0b, 0xdb, 0x76, 0xf7, 0xff, 0xff,
  0x04, 0x00, 0x00, 0x00, 0x80, 0x00, 0x00, 0x00, 0xe4, 0xf1, 0xff, 0xff,
  0xf9, 0xf8, 0xff, 0xff, 0xea, 0x07, 0x00, 0x00, 0xd0, 0x0f, 0x00, 0x00,
  0x00, 0x00, 0x00, 0x00, 0x32, 0x13, 0x00, 0x00, 0xf8, 0xf2, 0xff, 0xff,
  0x7f, 0xf3, 0xff, 0xff, 0x6f, 0x12, 0x00, 0x00, 0xb8, 0xf8, 0xff, 0xff,
  0x14, 0x0b, 0x00, 0x00, 0xfd, 0x11, 0x00, 0x00, 0xf4, 0xf9, 0xff, 0xff,
  0xfc, 0x06, 0x00, 0x00, 0x00, 0x00, 0x00, 0x00, 0x21, 0x15, 0x00, 0x00,
  0x62, 0xfd, 0xff, 0xff, 0x85, 0xfd, 0xff, 0xff, 0x73, 0xff, 0xff, 0xff,
  0x5b, 0xfe, 0xff, 0xff, 0xdd, 0xfd, 0xff, 0xff, 0xe0, 0xee, 0xff, 0xff,
  0x00, 0x00, 0x00, 0x00, 0xc9, 0x09, 0x00, 0x00, 0x29, 0x1a, 0x00, 0x00,
  0xcb, 0xf4, 0xff, 0xff, 0xae, 0xf2, 0xff, 0xff, 0x3a, 0x03, 0x00, 0x00,
  0x00, 0xfc, 0xff, 0xff, 0xe4, 0xfc, 0xff, 0xff, 0x7b, 0xf0, 0xff, 0xff,
  0xfc, 0x13, 0x00, 0x00, 0x02, 0xf8, 0xff, 0xff, 0x04, 0x00, 0x00, 0x00,
  0xc0, 0x00, 0x00, 0x00, 0x2e, 0xf6, 0x59, 0x1f, 0xa8, 0x11, 0x35, 0xce,
  0x4b, 0x2c, 0xa3, 0x40, 0xdd, 0x32, 0xc0, 0xb2, 0x29, 0x43, 0xc3, 0x28,
  0xdb, 0xdb, 0x08, 0x4a, 0xde, 0xf0, 0xf7, 0x01, 0xdd, 0x0a, 0xc0, 0x28,
  0xbd, 0xff, 0x1d, 0x44, 0x22, 0x52, 0xb0, 0xd1, 0x01, 0x47, 0x59, 0xe8,
  0x1f, 0x3d, 0x99, 0x10, 0xd6, 0x22, 0xe1, 0x9c, 0x61, 0xe9, 0xd2, 0xb0,
  0x4f, 0x00, 0x02, 0x49, 0x23, 0x25, 0x96, 0xff, 0x49, 0xcc, 0x21, 0xe6,
  0xca, 0xf5, 0x49, 0xb6, 0xea, 0x52, 0xd6, 0xdf, 0x02, 0x4a, 0xe8, 0x62,
  0xd0, 0xec, 0xe8, 0x39, 0x0c, 0xe7, 0xda, 0x06, 0xe4, 0xe7, 0x0e, 0xf5,
  0xa0, 0xf8, 0x62, 0xc8, 0xf0, 0x20, 0x1a, 0xfa, 0xd1, 0xd0, 0x0f, 0xd7,
  0xde, 0x08, 0xf7, 0xf5, 0xcb, 0xbf, 0x40, 0x1e, 0xf2, 0x3f, 0x2f, 0x3b,
  0x9c, 0xf9, 0x00, 0x17, 0xa9, 0xc5, 0x4a, 0x31, 0xfe, 0x3a, 0x46, 0xfd,
  0x32, 0x3b, 0x9d, 0xff, 0x01, 0xeb, 0xd5, 0xdd, 0xf2, 0xd6, 0xc9, 0x0e,
  0xd7, 0xd3, 0x67, 0x05, 0x0d, 0x81, 0x31, 0x07, 0x25, 0xad, 0x4b, 0x2c,
  0x98, 0xfb, 0x07, 0x0c, 0xe8, 0xcc, 0x4a, 0x40, 0xb2, 0x6d, 0x3d, 0x39,
  0xac, 0xff, 0xe8, 0xf2, 0x42, 0x12, 0x2b, 0x25, 0xa4, 0xde, 0xdc, 0xf8,
  0x08, 0x19, 0xf1, 0xf2, 0xaa, 0xdd, 0x2f, 0x29, 0x3a, 0x28, 0x36, 0x9e,
  0x0e, 0x13, 0x15, 0xa6, 0xce, 0xf8, 0xff, 0xff, 0x04, 0x00, 0x00, 0x00,
  0x18, 0x00, 0x00, 0x00, 0xed, 0x0b, 0x00, 0x00, 0x1b, 0xfd, 0xff, 0xff,
  0xf1, 0x03, 0x00, 0x00, 0xb7, 0xfd, 0xff, 0xff, 0x13, 0x03, 0x00, 0x00,
  0x4a, 0xfc, 0xff, 0xff, 0xf2, 0xf8, 0xff, 0xff, 0x04, 0x00, 0x00, 0x00,
  0x24, 0x00, 0x00, 0x00, 0x8b, 0x69, 0x81, 0x47, 0x58, 0x26, 0x17, 0x1f,
  0xda, 0x2b, 0x81, 0xf9, 0x58, 0xea, 0x81, 0x42, 0x51, 0xee, 0xd1, 0x2b,
  0xef, 0x35, 0x25, 0x81, 0x4c, 0xed, 0xf7, 0x81, 0xa2, 0xd2, 0x2f, 0xec,
  0x7f, 0x41, 0xfc, 0xb6, 0x22, 0xf9, 0xff, 0xff, 0x04, 0x00, 0x00, 0x00,
  0x18, 0x00, 0x00, 0x00, 0x0f, 0x0c, 0x00, 0x00, 0x16, 0xf5, 0xff, 0xff,
  0xfe, 0x08, 0x00, 0x00, 0xe3, 0xec, 0xff, 0xff, 0xe1, 0xd3, 0xff, 0xff,
  0xb5, 0x2f, 0x00, 0x00, 0x46, 0xf9, 0xff, 0xff, 0x04, 0x00, 0x00, 0x00,
  0x24, 0x00, 0x00, 0x00, 0x40, 0x92, 0x25, 0x7f, 0xb7, 0xac, 0xe0, 0x38,
  0x23, 0xba, 0xf8, 0x7f, 0x7f, 0xba, 0xc4, 0xd0, 0xdd, 0x7a, 0x01, 0x7b,
  0x44, 0x82, 0x7f, 0x85, 0xd8, 0x44, 0x21, 0x39, 0x7f, 0xb6, 0x89, 0x05,
  0xba, 0x81, 0x84, 0x69, 0x76, 0xf9, 0xff, 0xff, 0x04, 0x00, 0x00, 0x00,
  0x18, 0x00, 0x00, 0x00, 0xf1, 0xe3, 0xff, 0xff, 0x79, 0x0c, 0x00, 0x00,
  0xb4, 0xfc, 0xff, 0xff, 0x32, 0x04, 0x00, 0x00, 0xc9, 0x16, 0x00, 0x00,
  0x4b, 0x12, 0x00, 0x00, 0x9a, 0xf9, 0xff, 0xff, 0x04, 0x00, 0x00, 0x00,
  0x36, 0x00, 0x00, 0x00, 0x41, 0xe6, 0xb7, 0x0c, 0xd8, 0xc7, 0xcb, 0xde,
  0x28, 0x17, 0xc6, 0xc8, 0xd1, 0x06, 0x0e, 0x23, 0xe6, 0xc0, 0x2c, 0x02,
  0x47, 0xf2, 0x25, 0x0b, 0x1a, 0x81, 0x81, 0x24, 0xb6, 0x81, 0x7f, 0x3c,
  0x09, 0xe4, 0x13, 0x04, 0x57, 0xe2, 0x61, 0xdc, 0x2f, 0x3b, 0xd7, 0xba,
  0x6d, 0x81, 0x2d, 0xdf, 0x45, 0x2f, 0x49, 0xc8, 0x7f, 0x48, 0x00, 0x00,
  0xde, 0xf9, 0xff, 0xff, 0x04, 0x00, 0x00, 0x00, 0x18, 0x00, 0x00, 0x00,
  0x45, 0x0d, 0x00, 0x00, 0xb0, 0x0f, 0x00, 0x00, 0xab, 0x11, 0x00, 0x00,
  0xa6, 0xf6, 0xff, 0xff, 0x7b, 0xfc, 0xff, 0xff, 0x43, 0x20, 0x00, 0x00,
  0x02, 0xfa, 0xff, 0xff, 0x04, 0x00, 0x00, 0x00, 0x24, 0x00, 0x00, 0x00,
  0x48, 0x26, 0x18, 0xba, 0x8a, 0x7f, 0x03, 0x26, 0x81, 0x68, 0x26, 0x5e,
  0x5d, 0x6d, 0x7f, 0x6c, 0xe7, 0x89, 0x81, 0xf2, 0xe8, 0x3d, 0xdc, 0x20,
  0x7f, 0xc0, 0x0a, 0x9a, 0x3c, 0x09, 0xd1, 0xef, 0x3c, 0xe6, 0xaa, 0x7f,
  0x32, 0xfa, 0xff, 0xff, 0x04, 0x00, 0x00, 0x00, 0x18, 0x00, 0x00, 0x00,
  0xd4, 0xff, 0xff, 0xff, 0xe4, 0xe6, 0xff, 0xff, 0x2d, 0xe6, 0xff, 0xff,
  0x5c, 0xe1, 0xff, 0xff, 0x64, 0xda, 0xff, 0xff, 0x7c, 0x12, 0x00, 0x00,
  0x56, 0xfa, 0xff, 0xff, 0x04, 0x00, 0x00, 0x00, 0x18, 0x00, 0x00, 0x00,
  0xcd, 0xc2, 0x81, 0x66, 0x7f, 0x21, 0x0f, 0xf4, 0xa9, 0x39, 0x47, 0x7f,
  0x6f, 0x7f, 0x77, 0xde, 0x4c, 0x95, 0xb6, 0x7f, 0x81, 0x71, 0xc0, 0xe5,
  0x7a, 0xfa, 0xff, 0xff, 0x04, 0x00, 0x00, 0x00, 0x10, 0x00, 0x00, 0x00,
  0x70, 0x37, 0x00, 0x00, 0x75, 0xbe, 0xff, 0xff, 0xd8, 0xe4, 0xff, 0xff,
  0x8b, 0x09, 0x00, 0x00, 0x96, 0xfa, 0xff, 0xff, 0x04, 0x00, 0x00, 0x00,
  0x24, 0x00, 0x00, 0x00, 0xaa, 0x65, 0xef, 0xd2, 0x81, 0x7f, 0x29, 0xf2,
  0xe3, 0x5f, 0x29, 0x14, 0x12, 0xff, 0xbe, 0x60, 0xed, 0xfa, 0xcb, 0x7b,
  0xe6, 0x0c, 0xcb, 0x00, 0x46, 0xed, 0x25, 0x1a, 0xf9, 0xbf, 0x7f, 0x7f,
  0xee, 0xe9, 0x4a, 0x65, 0xc6, 0xfa, 0xff, 0xff, 0x04, 0x00, 0x00, 0x00,
  0x10, 0x00, 0x00, 0x00, 0xcb, 0xf7, 0xff, 0xff, 0x10, 0x0e, 0x00, 0x00,
  0xd2, 0x1e, 0x00, 0x00, 0x2a, 0x17, 0x00, 0x00, 0xe2, 0xfa, 0xff, 0xff,
  0x04, 0x00, 0x00, 0x00, 0x10, 0x00, 0x00, 0x00, 0x7f, 0x34, 0x25, 0x64,
  0x81, 0x50, 0xe2, 0x78, 0xb7, 0xfa, 0x81, 0x58, 0x4b, 0x81, 0x54, 0xe1,
  0xfe, 0xfa, 0xff, 0xff, 0x04, 0x00, 0x00, 0x00, 0x10, 0x00, 0x00, 0x00,
  0x86, 0x28, 0x00, 0x00, 0xd3, 0x1c, 0x00, 0x00, 0x1f, 0xdd, 0xff, 0xff,
  0x4b, 0x20, 0x00, 0x00, 0x1a, 0xfb, 0xff, 0xff, 0x04, 0x00, 0x00, 0x00,
  0x04, 0x00, 0x00, 0x00, 0x81, 0x81, 0x7f, 0x81, 0x2a, 0xfb, 0xff, 0xff,
  0x04, 0x00, 0x00, 0x00, 0x04, 0x00, 0x00, 0x00, 0x44, 0x93, 0x00, 0x00,
  0x3a, 0xfb, 0xff, 0xff, 0x04, 0x00, 0x00, 0x00, 0x09, 0x00, 0x00, 0x00,
  0xd6, 0x1a, 0xe2, 0x81, 0xd3, 0xfb, 0xd2, 0x15, 0xf0, 0x00, 0x00, 0x00,
  0x52, 0xfb, 0xff, 0xff, 0x04, 0x00, 0x00, 0x00, 0x04, 0x00, 0x00, 0x00,
  0x0b, 0x67, 0x00, 0x00, 0x62, 0xfb, 0xff, 0xff, 0x04, 0x00, 0x00, 0x00,
  0x12, 0x00, 0x00, 0x00, 0x3b, 0xf3, 0xe0, 0xd3, 0x10, 0xd5, 0x25, 0xac,
  0xd4, 0xcd, 0x53, 0xcd, 0x7f, 0xff, 0x4a, 0xce, 0x4f, 0x01, 0x00, 0x00,
  0x82, 0xfb, 0xff, 0xff, 0x04, 0x00, 0x00, 0x00, 0x08, 0x00, 0x00, 0x00,
  0x01, 0x00, 0x00, 0x00, 0x02, 0x00, 0x00, 0x00, 0xe4, 0xdc, 0xff, 0xff,
  0xe8, 0xdc, 0xff, 0xff, 0x0f, 0x00, 0x00, 0x00, 0x4d, 0x4c, 0x49, 0x52,
  0x20, 0x43, 0x6f, 0x6e, 0x76, 0x65, 0x72, 0x74, 0x65, 0x64, 0x2e, 0x00,
  0x01, 0x00, 0x00, 0x00, 0x14, 0x00, 0x00, 0x00, 0x00, 0x00, 0x0e, 0x00,
  0x18, 0x00, 0x14, 0x00, 0x10, 0x00, 0x0c, 0x00, 0x08, 0x00, 0x04, 0x00,
  0x0e, 0x00, 0x00, 0x00, 0x14, 0x00, 0x00, 0x00, 0x1c, 0x00, 0x00, 0x00,
  0xf8, 0x04, 0x00, 0x00, 0xfc, 0x04, 0x00, 0x00, 0x00, 0x05, 0x00, 0x00,
  0x04, 0x00, 0x00, 0x00, 0x6d, 0x61, 0x69, 0x6e, 0x00, 0x00, 0x00, 0x00,
  0x12, 0x00, 0x00, 0x00, 0x90, 0x04, 0x00, 0x00, 0x3c, 0x04, 0x00, 0x00,
  0xec, 0x03, 0x00, 0x00, 0x9c, 0x03, 0x00, 0x00, 0x44, 0x03, 0x00, 0x00,
  0xf8, 0x02, 0x00, 0x00, 0xb4, 0x02, 0x00, 0x00, 0x6c, 0x02, 0x00, 0x00,
  0x2c, 0x02, 0x00, 0x00, 0xe8, 0x01, 0x00, 0x00, 0xa0, 0x01, 0x00, 0x00,
  0x60, 0x01, 0x00, 0x00, 0x2c, 0x01, 0x00, 0x00, 0xe8, 0x00, 0x00, 0x00,
  0xb4, 0x00, 0x00, 0x00, 0x70, 0x00, 0x00, 0x00, 0x38, 0x00, 0x00, 0x00,
  0x04, 0x00, 0x00, 0x00, 0x16, 0xfc, 0xff, 0xff, 0x14, 0x00, 0x00, 0x00,
  0x00, 0x00, 0x00, 0x09, 0x14, 0x00, 0x00, 0x00, 0x18, 0x00, 0x00, 0x00,
  0x08, 0x00, 0x00, 0x00, 0x52, 0xfc, 0xff, 0xff, 0x00, 0x00, 0x80, 0x3f,
  0x01, 0x00, 0x00, 0x00, 0x2b, 0x00, 0x00, 0x00, 0x01, 0x00, 0x00, 0x00,
  0x2a, 0x00, 0x00, 0x00, 0x46, 0xfc, 0xff, 0xff, 0x14, 0x00, 0x00, 0x00,
  0x00, 0x00, 0x00, 0x08, 0x10, 0x00, 0x00, 0x00, 0x14, 0x00, 0x00, 0x00,
  0x07, 0x00, 0x00, 0x00, 0xd0, 0xdd, 0xff, 0xff, 0x01, 0x00, 0x00, 0x00,
  0x2a, 0x00, 0x00, 0x00, 0x03, 0x00, 0x00, 0x00, 0x29, 0x00, 0x00, 0x00,
  0x18, 0x00, 0x00, 0x00, 0x19, 0x00, 0x00, 0x00, 0x7a, 0xfc, 0xff, 0xff,
  0x1c, 0x00, 0x00, 0x00, 0x00, 0x00, 0x00, 0x08, 0x1c, 0x00, 0x00, 0x00,
  0x20, 0x00, 0x00, 0x00, 0x07, 0x00, 0x00, 0x00, 0x00, 0x00, 0x06, 0x00,
  0x08, 0x00, 0x07, 0x00, 0x06, 0x00, 0x00, 0x00, 0x00, 0x00, 0x00, 0x01,
  0x01, 0x00, 0x00, 0x00, 0x29, 0x00, 0x00, 0x00, 0x03, 0x00, 0x00, 0x00,
  0x28, 0x00, 0x00, 0x00, 0x16, 0x00, 0x00, 0x00, 0x17, 0x00, 0x00, 0x00,
  0xba, 0xfc, 0xff, 0xff, 0x14, 0x00, 0x00, 0x00, 0x00, 0x00, 0x00, 0x1b,
  0x10, 0x00, 0x00, 0x00, 0x14, 0x00, 0x00, 0x00, 0x06, 0x00, 0x00, 0x00,
  0x44, 0xde, 0xff, 0xff, 0x01, 0x00, 0x00, 0x00, 0x28, 0x00, 0x00, 0x00,
  0x02, 0x00, 0x00, 0x00, 0x27, 0x00, 0x00, 0x00, 0x01, 0x00, 0x00, 0x00,
  0xea, 0xfc, 0xff, 0xff, 0x14, 0x00, 0x00, 0x00, 0x00, 0x00, 0x00, 0x01,
  0x1c, 0x00, 0x00, 0x00, 0x20, 0x00, 0x00, 0x00, 0x03, 0x00, 0x00, 0x00,
  0x74, 0xfd, 0xff, 0xff, 0x00, 0x00, 0x00, 0x03, 0x01, 0x00, 0x00, 0x00,
  0x01, 0x00, 0x00, 0x00, 0x01, 0x00, 0x00, 0x00, 0x27, 0x00, 0x00, 0x00,
  0x03, 0x00, 0x00, 0x00, 0x26, 0x00, 0x00, 0x00, 0x14, 0x00, 0x00, 0x00,
  0x15, 0x00, 0x00, 0x00, 0x2a, 0xfd, 0xff, 0xff, 0x14, 0x00, 0x00, 0x00,
  0x00, 0x00, 0x00, 0x0b, 0x10, 0x00, 0x00, 0x00, 0x14, 0x00, 0x00, 0x00,
  0x05, 0x00, 0x00, 0x00, 0xb4, 0xde, 0xff, 0xff, 0x01, 0x00, 0x00, 0x00,
  0x26, 0x00, 0x00, 0x00, 0x02, 0x00, 0x00, 0x00, 0x22, 0x00, 0x00, 0x00,
  0x25, 0x00, 0x00, 0x00, 0x5a, 0xfd, 0xff, 0xff, 0x14, 0x00, 0x00, 0x00,
  0x00, 0x00, 0x00, 0x01, 0x18, 0x00, 0x00, 0x00, 0x1c, 0x00, 0x00, 0x00,
  0x03, 0x00, 0x00, 0x00, 0x7e, 0xfe, 0xff, 0xff, 0x01, 0x00, 0x00, 0x00,
  0x01, 0x00, 0x00, 0x00, 0x01, 0x00, 0x00, 0x00, 0x25, 0x00, 0x00, 0x00,
  0x03, 0x00, 0x00, 0x00, 0x24, 0x00, 0x00, 0x00, 0x12, 0x00, 0x00, 0x00,
  0x13, 0x00, 0x00, 0x00, 0x96, 0xfd, 0xff, 0xff, 0x14, 0x00, 0x00, 0x00,
  0x00, 0x00, 0x00, 0x02, 0x20, 0x00, 0x00, 0x00, 0x24, 0x00, 0x00, 0x00,
  0x04, 0x00, 0x00, 0x00, 0x72, 0xfe, 0xff, 0xff, 0x00, 0x00, 0x00, 0x03,
  0x01, 0x00, 0x00, 0x00, 0x01, 0x00, 0x00, 0x00, 0x01, 0x00, 0x00, 0x00,
  0x01, 0x00, 0x00, 0x00, 0x24, 0x00, 0x00, 0x00, 0x03, 0x00, 0x00, 0x00,
  0x23, 0x00, 0x00, 0x00, 0x10, 0x00, 0x00, 0x00, 0x11, 0x00, 0x00, 0x00,
  0xda, 0xfd, 0xff, 0xff, 0x14, 0x00, 0x00, 0x00, 0x00, 0x00, 0x00, 0x01,
  0x1c, 0x00, 0x00, 0x00, 0x20, 0x00, 0x00, 0x00, 0x03, 0x00, 0x00, 0x00,
  0x64, 0xfe, 0xff, 0xff, 0x00, 0x00, 0x00, 0x03, 0x01, 0x00, 0x00, 0x00,
  0x01, 0x00, 0x00, 0x00, 0x01, 0x00, 0x00, 0x00, 0x23, 0x00, 0x00, 0x00,
  0x03, 0x00, 0x00, 0x00, 0x22, 0x00, 0x00, 0x00, 0x0e, 0x00, 0x00, 0x00,
  0x0f, 0x00, 0x00, 0x00, 0x1a, 0xfe, 0xff, 0xff, 0x14, 0x00, 0x00, 0x00,
  0x00, 0x00, 0x00, 0x01, 0x18, 0x00, 0x00, 0x00, 0x1c, 0x00, 0x00, 0x00,
  0x03, 0x00, 0x00, 0x00, 0x3e, 0xff, 0xff, 0xff, 0x01, 0x00, 0x00, 0x00,
  0x01, 0x00, 0x00, 0x00, 0x01, 0x00, 0x00, 0x00, 0x22, 0x00, 0x00, 0x00,
  0x03, 0x00, 0x00, 0x00, 0x21, 0x00, 0x00, 0x00, 0x0c, 0x00, 0x00, 0x00,
  0x0d, 0x00, 0x00, 0x00, 0x56, 0xfe, 0xff, 0xff, 0x14, 0x00, 0x00, 0x00,
  0x00, 0x00, 0x00, 0x02, 0x20, 0x00, 0x00, 0x00, 0x24, 0x00, 0x00, 0x00,
  0x04, 0x00, 0x00, 0x00, 0x32, 0xff, 0xff, 0xff, 0x00, 0x00, 0x00, 0x03,
  0x01, 0x00, 0x00, 0x00, 0x02, 0x00, 0x00, 0x00, 0x02, 0x00, 0x00, 0x00,
  0x01, 0x00, 0x00, 0x00, 0x21, 0x00, 0x00, 0x00, 0x03, 0x00, 0x00, 0x00,
  0x20, 0x00, 0x00, 0x00, 0x0a, 0x00, 0x00, 0x00, 0x0b, 0x00, 0x00, 0x00,
  0x9a, 0xfe, 0xff, 0xff, 0x14, 0x00, 0x00, 0x00, 0x00, 0x00, 0x00, 0x01,
  0x1c, 0x00, 0x00, 0x00, 0x20, 0x00, 0x00, 0x00, 0x03, 0x00, 0x00, 0x00,
  0x24, 0xff, 0xff, 0xff, 0x00, 0x00, 0x00, 0x03, 0x01, 0x00, 0x00, 0x00,
  0x01, 0x00, 0x00, 0x00, 0x01, 0x00, 0x00, 0x00, 0x20, 0x00, 0x00, 0x00,
  0x03, 0x00, 0x00, 0x00, 0x1f, 0x00, 0x00, 0x00, 0x08, 0x00, 0x00, 0x00,
  0x09, 0x00, 0x00, 0x00, 0xda, 0xfe, 0xff, 0xff, 0x20, 0x00, 0x00, 0x00,
  0x00, 0x00, 0x00, 0x01, 0x24, 0x00, 0x00, 0x00, 0x28, 0x00, 0x00, 0x00,
  0x03, 0x00, 0x00, 0x00, 0x00, 0x00, 0x0a, 0x00, 0x0c, 0x00, 0x00, 0x00,
  0x08, 0x00, 0x04, 0x00, 0x0a, 0x00, 0x00, 0x00, 0x01, 0x00, 0x00, 0x00,
  0x01, 0x00, 0x00, 0x00, 0x01, 0x00, 0x00, 0x00, 0x1f, 0x00, 0x00, 0x00,
  0x03, 0x00, 0x00, 0x00, 0x1e, 0x00, 0x00, 0x00, 0x06, 0x00, 0x00, 0x00,
  0x07, 0x00, 0x00, 0x00, 0x22, 0xff, 0xff, 0xff, 0x24, 0x00, 0x00, 0x00,
  0x00, 0x00, 0x00, 0x02, 0x30, 0x00, 0x00, 0x00, 0x34, 0x00, 0x00, 0x00,
  0x04, 0x00, 0x00, 0x00, 0x00, 0x00, 0x0e, 0x00, 0x14, 0x00, 0x00, 0x00,
  0x10, 0x00, 0x0c, 0x00, 0x08, 0x00, 0x07, 0x00, 0x0e, 0x00, 0x00, 0x00,
  0x00, 0x00, 0x00, 0x03, 0x01, 0x00, 0x00, 0x00, 0x01, 0x00, 0x00, 0x00,
  0x01, 0x00, 0x00, 0x00, 0x01, 0x00, 0x00, 0x00, 0x1e, 0x00, 0x00, 0x00,
  0x03, 0x00, 0x00, 0x00, 0x1d, 0x00, 0x00, 0x00, 0x04, 0x00, 0x00, 0x00,
  0x05, 0x00, 0x00, 0x00, 0x76, 0xff, 0xff, 0xff, 0x20, 0x00, 0x00, 0x00,
  0x00, 0x00, 0x00, 0x01, 0x28, 0x00, 0x00, 0x00, 0x2c, 0x00, 0x00, 0x00,
  0x03, 0x00, 0x00, 0x00, 0x0c, 0x00, 0x10, 0x00, 0x00, 0x00, 0x0c, 0x00,
  0x08, 0x00, 0x07, 0x00, 0x0c, 0x00, 0x00, 0x00, 0x00, 0x00, 0x00, 0x03,
  0x02, 0x00, 0x00, 0x00, 0x02, 0x00, 0x00, 0x00, 0x01, 0x00, 0x00, 0x00,
  0x1d, 0x00, 0x00, 0x00, 0x03, 0x00, 0x00, 0x00, 0x1c, 0x00, 0x00, 0x00,
  0x02, 0x00, 0x00, 0x00, 0x03, 0x00, 0x00, 0x00, 0xc2, 0xff, 0xff, 0xff,
  0x1c, 0x00, 0x00, 0x00, 0x00, 0x00, 0x00, 0x0a, 0x1c, 0x00, 0x00, 0x00,
  0x20, 0x00, 0x00, 0x00, 0x02, 0x00, 0x00, 0x00, 0x00, 0x00, 0x06, 0x00,
  0x08, 0x00, 0x04, 0x00, 0x06, 0x00, 0x00, 0x00, 0x03, 0x00, 0x00, 0x00,
  0x01, 0x00, 0x00, 0x00, 0x1c, 0x00, 0x00, 0x00, 0x02, 0x00, 0x00, 0x00,
  0x1a, 0x00, 0x00, 0x00, 0x1b, 0x00, 0x00, 0x00, 0x00, 0x00, 0x0e, 0x00,
  0x18, 0x00, 0x14, 0x00, 0x10, 0x00, 0x0c, 0x00, 0x0b, 0x00, 0x04, 0x00,
  0x0e, 0x00, 0x00, 0x00, 0x14, 0x00, 0x00, 0x00, 0x00, 0x00, 0x00, 0x05,
  0x24, 0x00, 0x00, 0x00, 0x28, 0x00, 0x00, 0x00, 0x01, 0x00, 0x00, 0x00,
  0xb2, 0xff, 0xff, 0xff, 0x05, 0x00, 0x00, 0x00, 0x05, 0x00, 0x00, 0x00,
  0x03, 0x00, 0x00, 0x00, 0x03, 0x00, 0x00, 0x00, 0x00, 0x00, 0x00, 0x01,
  0x01, 0x00, 0x00, 0x00, 0x1b, 0x00, 0x00, 0x00, 0x01, 0x00, 0x00, 0x00,
  0x00, 0x00, 0x00, 0x00, 0x00, 0x00, 0x0e, 0x00, 0x16, 0x00, 0x00, 0x00,
  0x10, 0x00, 0x0c, 0x00, 0x0b, 0x00, 0x04, 0x00, 0x0e, 0x00, 0x00, 0x00,
  0x20, 0x00, 0x00, 0x00, 0x00, 0x00, 0x00, 0x05, 0x30, 0x00, 0x00, 0x00,
  0x34, 0x00, 0x00, 0x00, 0x00, 0x00, 0x0e, 0x00, 0x18, 0x00, 0x17, 0x00,
  0x10, 0x00, 0x0c, 0x00, 0x08, 0x00, 0x04, 0x00, 0x0e, 0x00, 0x00, 0x00,
  0x05, 0x00, 0x00, 0x00, 0x05, 0x00, 0x00, 0x00, 0x03, 0x00, 0x00, 0x00,
  0x03, 0x00, 0x00, 0x00, 0x00, 0x00, 0x00, 0x01, 0x01, 0x00, 0x00, 0x00,
  0x1a, 0x00, 0x00, 0x00, 0x01, 0x00, 0x00, 0x00, 0x00, 0x00, 0x00, 0x00,
  0x01, 0x00, 0x00, 0x00, 0x2b, 0x00, 0x00, 0x00, 0x01, 0x00, 0x00, 0x00,
  0x00, 0x00, 0x00, 0x00, 0x2c, 0x00, 0x00, 0x00, 0x2c, 0x1e, 0x00, 0x00,
  0xb4, 0x1d, 0x00, 0x00, 0x38, 0x1d, 0x00, 0x00, 0xbc, 0x1c, 0x00, 0x00,
  0xe8, 0x1b, 0x00, 0x00, 0x3c, 0x1b, 0x00, 0x00, 0xa0, 0x1a, 0x00, 0x00,
  0xe4, 0x19, 0x00, 0x00, 0x50, 0x19, 0x00, 0x00, 0x7c, 0x18, 0x00, 0x00,
  0x94, 0x17, 0x00, 0x00, 0xbc, 0x16, 0x00, 0x00, 0x08, 0x16, 0x00, 0x00,
  0x34, 0x15, 0x00, 0x00, 0x88, 0x14, 0x00, 0x00, 0x9c, 0x13, 0x00, 0x00,
  0x9c, 0x12, 0x00, 0x00, 0xac, 0x11, 0x00, 0x00, 0xf8, 0x10, 0x00, 0x00,
  0x0c, 0x10, 0x00, 0x00, 0x60, 0x0f, 0x00, 0x00, 0x84, 0x0e, 0x00, 0x00,
  0x20, 0x0e, 0x00, 0x00, 0xac, 0x0d, 0x00, 0x00, 0x48, 0x0d, 0x00, 0x00,
  0xcc, 0x0c, 0x00, 0x00, 0x40, 0x0c, 0x00, 0x00, 0xb4, 0x0b, 0x00, 0x00,
  0x28, 0x0b, 0x00, 0x00, 0x6c, 0x0a, 0x00, 0x00, 0x80, 0x09, 0x00, 0x00,
  0xc4, 0x08, 0x00, 0x00, 0xd0, 0x07, 0x00, 0x00, 0xdc, 0x06, 0x00, 0x00,
  0x20, 0x06, 0x00, 0x00, 0x2c, 0x05, 0x00, 0x00, 0x38, 0x04, 0x00, 0x00,
  0x64, 0x03, 0x00, 0x00, 0xe8, 0x02, 0x00, 0x00, 0x0c, 0x02, 0x00, 0x00,
  0x90, 0x01, 0x00, 0x00, 0xfc, 0x00, 0x00, 0x00, 0x70, 0x00, 0x00, 0x00,
  0x04, 0x00, 0x00, 0x00, 0x98, 0xe2, 0xff, 0xff, 0x18, 0x00, 0x00, 0x00,
  0x20, 0x00, 0x00, 0x00, 0x40, 0x00, 0x00, 0x00, 0x2c, 0x00, 0x00, 0x00,
  0x00, 0x00, 0x00, 0x09, 0x44, 0x00, 0x00, 0x00, 0x02, 0x00, 0x00, 0x00,
  0xff, 0xff, 0xff, 0xff, 0x04, 0x00, 0x00, 0x00, 0x7c, 0xe2, 0xff, 0xff,
  0x08, 0x00, 0x00, 0x00, 0x14, 0x00, 0x00, 0x00, 0x01, 0x00, 0x00, 0x00,
  0x80, 0xff, 0xff, 0xff, 0xff, 0xff, 0xff, 0xff, 0x00, 0x00, 0x00, 0x00,
  0x01, 0x00, 0x00, 0x00, 0x00, 0x00, 0x80, 0x3b, 0x08, 0x00, 0x00, 0x00,
  0x49, 0x64, 0x65, 0x6e, 0x74, 0x69, 0x74, 0x79, 0x00, 0x00, 0x00, 0x00,
  0x02, 0x00, 0x00, 0x00, 0x01, 0x00, 0x00, 0x00, 0x04, 0x00, 0x00, 0x00,
  0x00, 0xe3, 0xff, 0xff, 0x18, 0x00, 0x00, 0x00, 0x20, 0x00, 0x00, 0x00,
  0x40, 0x00, 0x00, 0x00, 0x2b, 0x00, 0x00, 0x00, 0x00, 0x00, 0x00, 0x09,
  0x64, 0x00, 0x00, 0x00, 0x02, 0x00, 0x00, 0x00, 0xff, 0xff, 0xff, 0xff,
  0x04, 0x00, 0x00, 0x00, 0xe4, 0xe2, 0xff, 0xff, 0x08, 0x00, 0x00, 0x00,
  0x14, 0x00, 0x00, 0x00, 0x01, 0x00, 0x00, 0x00, 0x45, 0x00, 0x00, 0x00,
  0x00, 0x00, 0x00, 0x00, 0x00, 0x00, 0x00, 0x00, 0x01, 0x00, 0x00, 0x00,
  0x16, 0x5e, 0xae, 0x3d, 0x2a, 0x00, 0x00, 0x00, 0x6d, 0x6f, 0x64, 0x65,
  0x6c, 0x2f, 0x64, 0x65, 0x6e, 0x73, 0x65, 0x5f, 0x31, 0x2f, 0x4d, 0x61,
  0x74, 0x4d, 0x75, 0x6c, 0x3b, 0x6d, 0x6f, 0x64, 0x65, 0x6c, 0x2f, 0x64,
  0x65, 0x6e, 0x73, 0x65, 0x5f, 0x31, 0x2f, 0x42, 0x69, 0x61, 0x73, 0x41,
  0x64, 0x64, 0x00, 0x00, 0x02, 0x00, 0x00, 0x00, 0x01, 0x00, 0x00, 0x00,
  0x04, 0x00, 0x00, 0x00, 0x88, 0xe3, 0xff, 0xff, 0x18, 0x00, 0x00, 0x00,
  0x20, 0x00, 0x00, 0x00, 0x3c, 0x00, 0x00, 0x00, 0x2a, 0x00, 0x00, 0x00,
  0x00, 0x00, 0x00, 0x09, 0x6c, 0x00, 0x00, 0x00, 0x02, 0x00, 0x00, 0x00,
  0xff, 0xff, 0xff, 0xff, 0x20, 0x00, 0x00, 0x00, 0x6c, 0xe3, 0xff, 0xff,
  0x08, 0x00, 0x00, 0x00, 0x10, 0x00, 0x00, 0x00, 0x01, 0x00, 0x00, 0x00,
  0x80, 0xff, 0xff, 0xff, 0xff, 0xff, 0xff, 0xff, 0x01, 0x00, 0x00, 0x00,
  0x55, 0x5d, 0xbf, 0x3b, 0x37, 0x00, 0x00, 0x00, 0x6d, 0x6f, 0x64, 0x65,
  0x6c, 0x2f, 0x64, 0x65, 0x6e, 0x73, 0x65, 0x2f, 0x4d, 0x61, 0x74, 0x4d,
  0x75, 0x6c, 0x3b, 0x6d, 0x6f, 0x64, 0x65, 0x6c, 0x2f, 0x64, 0x65, 0x6e,
  0x73, 0x65, 0x2f, 0x42, 0x69, 0x61, 0x73, 0x41, 0x64, 0x64, 0x3b, 0x6d,
  0x6f, 0x64, 0x65, 0x6c, 0x2f, 0x64, 0x65, 0x6e, 0x73, 0x65, 0x2f, 0x52,
  0x65, 0x6c, 0x75, 0x00, 0x02, 0x00, 0x00, 0x00, 0x01, 0x00, 0x00, 0x00,
  0x20, 0x00, 0x00, 0x00, 0x18, 0xe4, 0xff, 0xff, 0x18, 0x00, 0x00, 0x00,
  0x20, 0x00, 0x00, 0x00, 0x3c, 0x00, 0x00, 0x00, 0x29, 0x00, 0x00, 0x00,
  0x00, 0x00, 0x00, 0x09, 0x54, 0x00, 0x00, 0x00, 0x02, 0x00, 0x00, 0x00,
  0xff, 0xff, 0xff, 0xff, 0x06, 0x00, 0x00, 0x00, 0xfc, 0xe3, 0xff, 0xff,
  0x08, 0x00, 0x00, 0x00, 0x10, 0x00, 0x00, 0x00, 0x01, 0x00, 0x00, 0x00,
  0x80, 0xff, 0xff, 0xff, 0xff, 0xff, 0xff, 0xff, 0x01, 0x00, 0x00, 0x00,
  0x92, 0x77, 0xce, 0x3b, 0x1e, 0x00, 0x00, 0x00, 0x6d, 0x6f, 0x64, 0x65,
  0x6c, 0x2f, 0x67, 0x6c, 0x6f, 0x62, 0x61, 0x6c, 0x5f, 0x61, 0x76, 0x65,
  0x72, 0x61, 0x67, 0x65, 0x5f, 0x70, 0x6f, 0x6f, 0x6c, 0x2f, 0x4d, 0x65,
  0x61, 0x6e, 0x00, 0x00, 0x02, 0x00, 0x00, 0x00, 0x01, 0x00, 0x00, 0x00,
  0x06, 0x00, 0x00, 0x00, 0x90, 0xe4, 0xff, 0xff, 0x18, 0x00, 0x00, 0x00,
  0x28, 0x00, 0x00, 0x00, 0x48, 0x00, 0x00, 0x00, 0x28, 0x00, 0x00, 0x00,
  0x00, 0x00, 0x00, 0x09, 0xac, 0x00, 0x00, 0x00, 0x04, 0x00, 0x00, 0x00,
  0xff, 0xff, 0xff, 0xff, 0x08, 0x00, 0x00, 0x00, 0x08, 0x00, 0x00, 0x00,
  0x06, 0x00, 0x00, 0x00, 0x7c, 0xe4, 0xff, 0xff, 0x08, 0x00, 0x00, 0x00,
  0x14, 0x00, 0x00, 0x00, 0x01, 0x00, 0x00, 0x00, 0x80, 0xff, 0xff, 0xff,
  0xff, 0xff, 0xff, 0xff, 0x00, 0x00, 0x00, 0x00, 0x01, 0x00, 0x00, 0x00,
  0xc1, 0xc0, 0xc0, 0x3c, 0x69, 0x00, 0x00, 0x00, 0x6d, 0x6f, 0x64, 0x65,
  0x6c, 0x2f, 0x6c, 0x61, 0x73, 0x74, 0x5f, 0x72, 0x65, 0x6c, 0x75, 0x2f,
  0x52, 0x65, 0x6c, 0x75, 0x36, 0x3b, 0x6d, 0x6f, 0x64, 0x65, 0x6c, 0x2f,
  0x6c, 0x61, 0x73, 0x74, 0x5f, 0x62, 0x6e, 0x2f, 0x46, 0x75, 0x73, 0x65,
  0x64, 0x42, 0x61, 0x74, 0x63, 0x68, 0x4e, 0x6f, 0x72, 0x6d, 0x56, 0x33,
  0x3b, 0x6d, 0x6f, 0x64, 0x65, 0x6c, 0x2f, 0x62, 0x6c, 0x6f, 0x63, 0x6b,
  0x5f, 0x32, 0x5f, 0x63, 0x6f, 0x6d, 0x70, 0x72, 0x65, 0x73, 0x73, 0x2f,
  0x43, 0x6f, 0x6e, 0x76, 0x32, 0x44, 0x3b, 0x6d, 0x6f, 0x64, 0x65, 0x6c,
  0x2f, 0x6c, 0x61, 0x73, 0x74, 0x5f, 0x63, 0x6f, 0x6e, 0x76, 0x2f, 0x43,
  0x6f, 0x6e, 0x76, 0x32, 0x44, 0x00, 0x00, 0x00, 0x04, 0x00, 0x00, 0x00,
  0x01, 0x00, 0x00, 0x00, 0x08, 0x00, 0x00, 0x00, 0x08, 0x00, 0x00, 0x00,
  0x06, 0x00, 0x00, 0x00, 0x68, 0xe5, 0xff, 0xff, 0x18, 0x00, 0x00, 0x00,
  0x28, 0x00, 0x00, 0x00, 0x44, 0x00, 0x00, 0x00, 0x27, 0x00, 0x00, 0x00,
  0x00, 0x00, 0x00, 0x09, 0x4c, 0x00, 0x00, 0x00, 0x04, 0x00, 0x00, 0x00,
  0xff, 0xff, 0xff, 0xff, 0x08, 0x00, 0x00, 0x00, 0x08, 0x00, 0x00, 0x00,
  0x06, 0x00, 0x00, 0x00, 0x54, 0xe5, 0xff, 0xff, 0x08, 0x00, 0x00, 0x00,
  0x10, 0x00, 0x00, 0x00, 0x01, 0x00, 0x00, 0x00, 0xf6, 0xff, 0xff, 0xff,
  0xff, 0xff, 0xff, 0xff, 0x01, 0x00, 0x00, 0x00, 0x8e, 0x8f, 0x48, 0x3d,
  0x0d, 0x00, 0x00, 0x00, 0x6d, 0x6f, 0x64, 0x65, 0x6c, 0x2f, 0x61, 0x64,
  0x64, 0x2f, 0x61, 0x64, 0x64, 0x00, 0x00, 0x00, 0x04, 0x00, 0x00, 0x00,
  0x01, 0x00, 0x00, 0x00, 0x08, 0x00, 0x00, 0x00, 0x08, 0x00, 0x00, 0x00,
  0x06, 0x00, 0x00, 0x00, 0xe0, 0xe5, 0xff, 0xff, 0x18, 0x00, 0x00, 0x00,
  0x28, 0x00, 0x00, 0x00, 0x44, 0x00, 0x00, 0x00, 0x26, 0x00, 0x00, 0x00,
  0x00, 0x00, 0x00, 0x09, 0xa4, 0x00, 0x00, 0x00, 0x04, 0x00, 0x00, 0x00,
  0xff, 0xff, 0xff, 0xff, 0x08, 0x00, 0x00, 0x00, 0x08, 0x00, 0x00, 0x00,
  0x06, 0x00, 0x00, 0x00, 0xcc, 0xe5, 0xff, 0xff, 0x08, 0x00, 0x00, 0x00,
  0x10, 0x00, 0x00, 0x00, 0x01, 0x00, 0x00, 0x00, 0xfa, 0xff, 0xff, 0xff,
  0xff, 0xff, 0xff, 0xff, 0x01, 0x00, 0x00, 0x00, 0x45, 0x19, 0x4f, 0x3d,
  0x67, 0x00, 0x00, 0x00, 0x6d, 0x6f, 0x64, 0x65, 0x6c, 0x2f, 0x62, 0x6c,
  0x6f, 0x63, 0x6b, 0x5f, 0x33, 0x5f, 0x63, 0x6f, 0x6d, 0x70, 0x72, 0x65,
  0x73, 0x73, 0x5f, 0x62, 0x6e, 0x2f, 0x46, 0x75, 0x73, 0x65, 0x64, 0x42,
  0x61, 0x74, 0x63, 0x68, 0x4e, 0x6f, 0x72, 0x6d, 0x56, 0x33, 0x3b, 0x6d,
  0x6f, 0x64, 0x65, 0x6c, 0x2f, 0x62, 0x6c, 0x6f, 0x63, 0x6b, 0x5f, 0x32,
  0x5f, 0x63, 0x6f, 0x6d, 0x70, 0x72, 0x65, 0x73, 0x73, 0x2f, 0x43, 0x6f,
  0x6e, 0x76, 0x32, 0x44, 0x3b, 0x6d, 0x6f, 0x64, 0x65, 0x6c, 0x2f, 0x62,
  0x6c, 0x6f, 0x63, 0x6b, 0x5f, 0x33, 0x5f, 0x63, 0x6f, 0x6d, 0x70, 0x72,
  0x65, 0x73, 0x73, 0x2f, 0x43, 0x6f, 0x6e, 0x76, 0x32, 0x44, 0x31, 0x00,
  0x04, 0x00, 0x00, 0x00, 0x01, 0x00, 0x00, 0x00, 0x08, 0x00, 0x00, 0x00,
  0x08, 0x00, 0x00, 0x00, 0x06, 0x00, 0x00, 0x00, 0xb0, 0xe6, 0xff, 0xff,
  0x18, 0x00, 0x00, 0x00, 0x28, 0x00, 0x00, 0x00, 0x44, 0x00, 0x00, 0x00,
  0x25, 0x00, 0x00, 0x00, 0x00, 0x00, 0x00, 0x09, 0xc4, 0x00, 0x00, 0x00,
  0x04, 0x00, 0x00, 0x00, 0xff, 0xff, 0xff, 0xff, 0x08, 0x00, 0x00, 0x00,
  0x08, 0x00, 0x00, 0x00, 0x06, 0x00, 0x00, 0x00, 0x9c, 0xe6, 0xff, 0xff,
  0x08, 0x00, 0x00, 0x00, 0x10, 0x00, 0x00, 0x00, 0x01, 0x00, 0x00, 0x00,
  0x80, 0xff, 0xff, 0xff, 0xff, 0xff, 0xff, 0xff, 0x01, 0x00, 0x00, 0x00,
  0x60, 0x1a, 0x8e, 0x3c, 0x85, 0x00, 0x00, 0x00, 0x6d, 0x6f, 0x64, 0x65,
  0x6c, 0x2f, 0x62, 0x6c, 0x6f, 0x63, 0x6b, 0x5f, 0x33, 0x5f, 0x64, 0x77,
  0x5f, 0x72, 0x65, 0x6c, 0x75, 0x2f, 0x52, 0x65, 0x6c, 0x75, 0x36, 0x3b,
  0x6d, 0x6f, 0x64, 0x65, 0x6c, 0x2f, 0x62, 0x6c, 0x6f, 0x63, 0x6b, 0x5f,
  0x33, 0x5f, 0x64, 0x77, 0x5f, 0x62, 0x6e, 0x2f, 0x46, 0x75, 0x73, 0x65,
  0x64, 0x42, 0x61, 0x74, 0x63, 0x68, 0x4e, 0x6f, 0x72, 0x6d, 0x56, 0x33,
  0x3b, 0x6d, 0x6f, 0x64, 0x65, 0x6c, 0x2f, 0x62, 0x6c, 0x6f, 0x63, 0x6b,
  0x5f, 0x32, 0x5f, 0x63, 0x6f, 0x6d, 0x70, 0x72, 0x65, 0x73, 0x73, 0x2f,
  0x43, 0x6f, 0x6e, 0x76, 0x32, 0x44, 0x3b, 0x6d, 0x6f, 0x64, 0x65, 0x6c,
  0x2f, 0x62, 0x6c, 0x6f, 0x63, 0x6b, 0x5f, 0x33, 0x5f, 0x64, 0x65, 0x70,
  0x74, 0x68, 0x77, 0x69, 0x73, 0x65, 0x5f, 0x63, 0x6f, 0x6e, 0x76, 0x2f,
  0x64, 0x65, 0x70, 0x74, 0x68, 0x77, 0x69, 0x73, 0x65, 0x00, 0x00, 0x00,
  0x04, 0x00, 0x00, 0x00, 0x01, 0x00, 0x00, 0x00, 0x08, 0x00, 0x00, 0x00,
  0x08, 0x00, 0x00, 0x00, 0x06, 0x00, 0x00, 0x00, 0xa0, 0xe7, 0xff, 0xff,
  0x18, 0x00, 0x00, 0x00, 0x28, 0x00, 0x00, 0x00, 0x48, 0x00, 0x00, 0x00,
  0x24, 0x00, 0x00, 0x00, 0x00, 0x00, 0x00, 0x09, 0xc4, 0x00, 0x00, 0x00,
  0x04, 0x00, 0x00, 0x00, 0xff, 0xff, 0xff, 0xff, 0x08, 0x00, 0x00, 0x00,
  0x08, 0x00, 0x00, 0x00, 0x06, 0x00, 0x00, 0x00, 0x8c, 0xe7, 0xff, 0xff,
  0x08, 0x00, 0x00, 0x00, 0x14, 0x00, 0x00, 0x00, 0x01, 0x00, 0x00, 0x00,
  0x80, 0xff, 0xff, 0xff, 0xff, 0xff, 0xff, 0xff, 0x00, 0x00, 0x00, 0x00,
  0x01, 0x00, 0x00, 0x00, 0xc1, 0xc0, 0xc0, 0x3c, 0x82, 0x00, 0x00, 0x00,
  0x6d, 0x6f, 0x64, 0x65, 0x6c, 0x2f, 0x62, 0x6c, 0x6f, 0x63, 0x6b, 0x5f,
  0x33, 0x5f, 0x65, 0x78, 0x70, 0x61, 0x6e, 0x64, 0x5f, 0x72, 0x65, 0x6c,
  0x75, 0x2f, 0x52, 0x65, 0x6c, 0x75, 0x36, 0x3b, 0x6d, 0x6f, 0x64, 0x65,
  0x6c, 0x2f, 0x62, 0x6c, 0x6f, 0x63, 0x6b, 0x5f, 0x33, 0x5f, 0x65, 0x78,
  0x70, 0x61, 0x6e, 0x64, 0x5f, 0x62, 0x6e, 0x2f, 0x46, 0x75, 0x73, 0x65,
  0x64, 0x42, 0x61, 0x74, 0x63, 0x68, 0x4e, 0x6f, 0x72, 0x6d, 0x56, 0x33,
  0x3b, 0x6d, 0x6f, 0x64, 0x65, 0x6c, 0x2f, 0x62, 0x6c, 0x6f, 0x63, 0x6b,
  0x5f, 0x32, 0x5f, 0x63, 0x6f, 0x6d, 0x70, 0x72, 0x65, 0x73, 0x73, 0x2f,
  0x43, 0x6f, 0x6e, 0x76, 0x32, 0x44, 0x3b, 0x6d, 0x6f, 0x64, 0x65, 0x6c,
  0x2f, 0x62, 0x6c, 0x6f, 0x63, 0x6b, 0x5f, 0x33, 0x5f, 0x65, 0x78, 0x70,
  0x61, 0x6e, 0x64, 0x2f, 0x43, 0x6f, 0x6e, 0x76, 0x32, 0x44, 0x00, 0x00,
  0x04, 0x00, 0x00, 0x00, 0x01, 0x00, 0x00, 0x00, 0x08, 0x00, 0x00, 0x00,
  0x08, 0x00, 0x00, 0x00, 0x06, 0x00, 0x00, 0x00, 0x90, 0xe8, 0xff, 0xff,
  0x18, 0x00, 0x00, 0x00, 0x28, 0x00, 0x00, 0x00, 0x48, 0x00, 0x00, 0x00,
  0x23, 0x00, 0x00, 0x00, 0x00, 0x00, 0x00, 0x09, 0x8c, 0x00, 0x00, 0x00,
  0x04, 0x00, 0x00, 0x00, 0xff, 0xff, 0xff, 0xff, 0x08, 0x00, 0x00, 0x00,
  0x08, 0x00, 0x00, 0x00, 0x06, 0x00, 0x00, 0x00, 0x7c, 0xe8, 0xff, 0xff,
  0x08, 0x00, 0x00, 0x00, 0x14, 0x00, 0x00, 0x00, 0x01, 0x00, 0x00, 0x00,
  0xde, 0xff, 0xff, 0xff, 0xff, 0xff, 0xff, 0xff, 0x00, 0x00, 0x00, 0x00,
  0x01, 0x00, 0x00, 0x00, 0xb9, 0x24, 0x06, 0x3d, 0x49, 0x00, 0x00, 0x00,
  0x6d, 0x6f, 0x64, 0x65, 0x6c, 0x2f, 0x62, 0x6c, 0x6f, 0x63, 0x6b, 0x5f,
  0x32, 0x5f, 0x63, 0x6f, 0x6d, 0x70, 0x72, 0x65, 0x73, 0x73, 0x5f, 0x62,
  0x6e, 0x2f, 0x46, 0x75, 0x73, 0x65, 0x64, 0x42, 0x61, 0x74, 0x63, 0x68,
  0x4e, 0x6f, 0x72, 0x6d, 0x56, 0x33, 0x3b, 0x6d, 0x6f, 0x64, 0x65, 0x6c,
  0x2f, 0x62, 0x6c, 0x6f, 0x63, 0x6b, 0x5f, 0x32, 0x5f, 0x63, 0x6f, 0x6d,
  0x70, 0x72, 0x65, 0x73, 0x73, 0x2f, 0x43, 0x6f, 0x6e, 0x76, 0x32, 0x44,
  0x31, 0x00, 0x00, 0x00, 0x04, 0x00, 0x00, 0x00, 0x01, 0x00, 0x00, 0x00,
  0x08, 0x00, 0x00, 0x00, 0x08, 0x00, 0x00, 0x00, 0x06, 0x00, 0x00, 0x00,
  0x48, 0xe9, 0xff, 0xff, 0x18, 0x00, 0x00, 0x00, 0x28, 0x00, 0x00, 0x00,
  0x44, 0x00, 0x00, 0x00, 0x22, 0x00, 0x00, 0x00, 0x00, 0x00, 0x00, 0x09,
  0xc4, 0x00, 0x00, 0x00, 0x04, 0x00, 0x00, 0x00, 0xff, 0xff, 0xff, 0xff,
  0x08, 0x00, 0x00, 0x00, 0x08, 0x00, 0x00, 0x00, 0x04, 0x00, 0x00, 0x00,
  0x34, 0xe9, 0xff, 0xff, 0x08, 0x00, 0x00, 0x00, 0x10, 0x00, 0x00, 0x00,
  0x01, 0x00, 0x00, 0x00, 0x80, 0xff, 0xff, 0xff, 0xff, 0xff, 0xff, 0xff,
  0x01, 0x00, 0x00, 0x00, 0x8c, 0x77, 0x80, 0x3c, 0x85, 0x00, 0x00, 0x00,
  0x6d, 0x6f, 0x64, 0x65, 0x6c, 0x2f, 0x62, 0x6c, 0x6f, 0x63, 0x6b, 0x5f,
  0x32, 0x5f, 0x64, 0x77, 0x5f, 0x72, 0x65, 0x6c, 0x75, 0x2f, 0x52, 0x65,
  0x6c, 0x75, 0x36, 0x3b, 0x6d, 0x6f, 0x64, 0x65, 0x6c, 0x2f, 0x62, 0x6c,
  0x6f, 0x63, 0x6b, 0x5f, 0x32, 0x5f, 0x64, 0x77, 0x5f, 0x62, 0x6e, 0x2f,
  0x46, 0x75, 0x73, 0x65, 0x64, 0x42, 0x61, 0x74, 0x63, 0x68, 0x4e, 0x6f,
  0x72, 0x6d, 0x56, 0x33, 0x3b, 0x6d, 0x6f, 0x64, 0x65, 0x6c, 0x2f, 0x62,
  0x6c, 0x6f, 0x63, 0x6b, 0x5f, 0x32, 0x5f, 0x64, 0x65, 0x70, 0x74, 0x68,
  0x77, 0x69, 0x73, 0x65, 0x5f, 0x63, 0x6f, 0x6e, 0x76, 0x2f, 0x64, 0x65,
  0x70, 0x74, 0x68, 0x77, 0x69, 0x73, 0x65, 0x3b, 0x6d, 0x6f, 0x64, 0x65,
  0x6c, 0x2f, 0x62, 0x6c, 0x6f, 0x63, 0x6b, 0x5f, 0x31, 0x5f, 0x63, 0x6f,
  0x6d, 0x70, 0x72, 0x65, 0x73, 0x73, 0x2f, 0x43, 0x6f, 0x6e, 0x76, 0x32,
  0x44, 0x00, 0x00, 0x00, 0x04, 0x00, 0x00, 0x00, 0x01, 0x00, 0x00, 0x00,
  0x08, 0x00, 0x00, 0x00, 0x08, 0x00, 0x00, 0x00, 0x04, 0x00, 0x00, 0x00,
  0x38, 0xea, 0xff, 0xff, 0x18, 0x00, 0x00, 0x00, 0x28, 0x00, 0x00, 0x00,
  0x48, 0x00, 0x00, 0x00, 0x21, 0x00, 0x00, 0x00, 0x00, 0x00, 0x00, 0x09,
  0xc4, 0x00, 0x00, 0x00, 0x04, 0x00, 0x00, 0x00, 0xff, 0xff, 0xff, 0xff,
  0x10, 0x00, 0x00, 0x00, 0x10, 0x00, 0x00, 0x00, 0x04, 0x00, 0x00, 0x00,
  0x24, 0xea, 0xff, 0xff, 0x08, 0x00, 0x00, 0x00, 0x14, 0x00, 0x00, 0x00,
  0x01, 0x00, 0x00, 0x00, 0x80, 0xff, 0xff, 0xff, 0xff, 0xff, 0xff, 0xff,
  0x00, 0x00, 0x00, 0x00, 0x01, 0x00, 0x00, 0x00, 0x6a, 0x52, 0x03, 0x3c,
  0x82, 0x00, 0x00, 0x00, 0x6d, 0x6f, 0x64, 0x65, 0x6c, 0x2f, 0x62, 0x6c,
  0x6f, 0x63, 0x6b, 0x5f, 0x32, 0x5f, 0x65, 0x78, 0x70, 0x61, 0x6e, 0x64,
  0x5f, 0x72, 0x65, 0x6c, 0x75, 0x2f, 0x52, 0x65, 0x6c, 0x75, 0x36, 0x3b,
  0x6d, 0x6f, 0x64, 0x65, 0x6c, 0x2f, 0x62, 0x6c, 0x6f, 0x63, 0x6b, 0x5f,
  0x32, 0x5f, 0x65, 0x78, 0x70, 0x61, 0x6e, 0x64, 0x5f, 0x62, 0x6e, 0x2f,
  0x46, 0x75, 0x73, 0x65, 0x64, 0x42, 0x61, 0x74, 0x63, 0x68, 0x4e, 0x6f,
  0x72, 0x6d, 0x56, 0x33, 0x3b, 0x6d, 0x6f, 0x64, 0x65, 0x6c, 0x2f, 0x62,
  0x6c, 0x6f, 0x63, 0x6b, 0x5f, 0x31, 0x5f, 0x63, 0x6f, 0x6d, 0x70, 0x72,
  0x65, 0x73, 0x73, 0x2f, 0x43, 0x6f, 0x6e, 0x76, 0x32, 0x44, 0x3b, 0x6d,
  0x6f, 0x64, 0x65, 0x6c, 0x2f, 0x62, 0x6c, 0x6f, 0x63, 0x6b, 0x5f, 0x32,
  0x5f, 0x65, 0x78, 0x70, 0x61, 0x6e, 0x64, 0x2f, 0x43, 0x6f, 0x6e, 0x76,
  0x32, 0x44, 0x00, 0x00, 0x04, 0x00, 0x00, 0x00, 0x01, 0x00, 0x00, 0x00,
  0x10, 0x00, 0x00, 0x00, 0x10, 0x00, 0x00, 0x00, 0x04, 0x00, 0x00, 0x00,
  0x28, 0xeb, 0xff, 0xff, 0x18, 0x00, 0x00, 0x00, 0x28, 0x00, 0x00, 0x00,
  0x48, 0x00, 0x00, 0x00, 0x20, 0x00, 0x00, 0x00, 0x00, 0x00, 0x00, 0x09,
  0x8c, 0x00, 0x00, 0x00, 0x04, 0x00, 0x00, 0x00, 0xff, 0xff, 0xff, 0xff,
  0x10, 0x00, 0x00, 0x00, 0x10, 0x00, 0x00, 0x00, 0x04, 0x00, 0x00, 0x00,
  0x14, 0xeb, 0xff, 0xff, 0x08, 0x00, 0x00, 0x00, 0x14, 0x00, 0x00, 0x00,
  0x01, 0x00, 0x00, 0x00, 0x03, 0x00, 0x00, 0x00, 0x00, 0x00, 0x00, 0x00,
  0x00, 0x00, 0x00, 0x00, 0x01, 0x00, 0x00, 0x00, 0x8a, 0x08, 0xd1, 0x3c,
  0x49, 0x00, 0x00, 0x00, 0x6d, 0x6f, 0x64, 0x65, 0x6c, 0x2f, 0x62, 0x6c,
  0x6f, 0x63, 0x6b, 0x5f, 0x31, 0x5f, 0x63, 0x6f, 0x6d, 0x70, 0x72, 0x65,
  0x73, 0x73, 0x5f, 0x62, 0x6e, 0x2f, 0x46, 0x75, 0x73, 0x65, 0x64, 0x42,
  0x61, 0x74, 0x63, 0x68, 0x4e, 0x6f, 0x72, 0x6d, 0x56, 0x33, 0x3b, 0x6d,
  0x6f, 0x64, 0x65, 0x6c, 0x2f, 0x62, 0x6c, 0x6f, 0x63, 0x6b, 0x5f, 0x31,
  0x5f, 0x63, 0x6f, 0x6d, 0x70, 0x72, 0x65, 0x73, 0x73, 0x2f, 0x43, 0x6f,
  0x6e, 0x76, 0x32, 0x44, 0x31, 0x00, 0x00, 0x00, 0x04, 0x00, 0x00, 0x00,
  0x01, 0x00, 0x00, 0x00, 0x10, 0x00, 0x00, 0x00, 0x10, 0x00, 0x00, 0x00,
  0x04, 0x00, 0x00, 0x00, 0xe0, 0xeb, 0xff, 0xff, 0x18, 0x00, 0x00, 0x00,
  0x28, 0x00, 0x00, 0x00, 0x48, 0x00, 0x00, 0x00, 0x1f, 0x00, 0x00, 0x00,
  0x00, 0x00, 0x00, 0x09, 0xbc, 0x00, 0x00, 0x00, 0x04, 0x00, 0x00, 0x00,
  0xff, 0xff, 0xff, 0xff, 0x10, 0x00, 0x00, 0x00, 0x10, 0x00, 0x00, 0x00,
  0x01, 0x00, 0x00, 0x00, 0xcc, 0xeb, 0xff, 0xff, 0x08, 0x00, 0x00, 0x00,
  0x14, 0x00, 0x00, 0x00, 0x01, 0x00, 0x00, 0x00, 0x80, 0xff, 0xff, 0xff,
  0xff, 0xff, 0xff, 0xff, 0x00, 0x00, 0x00, 0x00, 0x01, 0x00, 0x00, 0x00,
  0xe7, 0x44, 0xf8, 0x3b, 0x7b, 0x00, 0x00, 0x00, 0x6d, 0x6f, 0x64, 0x65,
  0x6c, 0x2f, 0x62, 0x6c, 0x6f, 0x63, 0x6b, 0x5f, 0x31, 0x5f, 0x64, 0x77,
  0x5f, 0x72, 0x65, 0x6c, 0x75, 0x2f, 0x52, 0x65, 0x6c, 0x75, 0x36, 0x3b,
  0x6d, 0x6f, 0x64, 0x65, 0x6c, 0x2f, 0x62, 0x6c, 0x6f, 0x63, 0x6b, 0x5f,
  0x31, 0x5f, 0x64, 0x77, 0x5f, 0x62, 0x6e, 0x2f, 0x46, 0x75, 0x73, 0x65,
  0x64, 0x42, 0x61, 0x74, 0x63, 0x68, 0x4e, 0x6f, 0x72, 0x6d, 0x56, 0x33,
  0x3b, 0x6d, 0x6f, 0x64, 0x65, 0x6c, 0x2f, 0x62, 0x6c, 0x6f, 0x63, 0x6b,
  0x5f, 0x31, 0x5f, 0x64, 0x65, 0x70, 0x74, 0x68, 0x77, 0x69, 0x73, 0x65,
  0x5f, 0x63, 0x6f, 0x6e, 0x76, 0x2f, 0x64, 0x65, 0x70, 0x74, 0x68, 0x77,
  0x69, 0x73, 0x65, 0x3b, 0x6d, 0x6f, 0x64, 0x65, 0x6c, 0x2f, 0x63, 0x6f,
  0x6e, 0x76, 0x32, 0x64, 0x2f, 0x43, 0x6f, 0x6e, 0x76, 0x32, 0x44, 0x00,
  0x04, 0x00, 0x00, 0x00, 0x01, 0x00, 0x00, 0x00, 0x10, 0x00, 0x00, 0x00,
  0x10, 0x00, 0x00, 0x00, 0x01, 0x00, 0x00, 0x00, 0xc8, 0xec, 0xff, 0xff,
  0x18, 0x00, 0x00, 0x00, 0x28, 0x00, 0x00, 0x00, 0x48, 0x00, 0x00, 0x00,
  0x1e, 0x00, 0x00, 0x00, 0x00, 0x00, 0x00, 0x09, 0x8c, 0x00, 0x00, 0x00,
  0x04, 0x00, 0x00, 0x00, 0xff, 0xff, 0xff, 0xff, 0x10, 0x00, 0x00, 0x00,
  0x10, 0x00, 0x00, 0x00, 0x01, 0x00, 0x00, 0x00, 0xb4, 0xec, 0xff, 0xff,
  0x08, 0x00, 0x00, 0x00, 0x14, 0x00, 0x00, 0x00, 0x01, 0x00, 0x00, 0x00,
  0x80, 0xff, 0xff, 0xff, 0xff, 0xff, 0xff, 0xff, 0x00, 0x00, 0x00, 0x00,
  0x01, 0x00, 0x00, 0x00, 0x50, 0xee, 0xa4, 0x3b, 0x4a, 0x00, 0x00, 0x00,
  0x6d, 0x6f, 0x64, 0x65, 0x6c, 0x2f, 0x63, 0x6f, 0x6e, 0x76, 0x31, 0x5f,
  0x72, 0x65, 0x6c, 0x75, 0x2f, 0x52, 0x65, 0x6c, 0x75, 0x36, 0x3b, 0x6d,
  0x6f, 0x64, 0x65, 0x6c, 0x2f, 0x63, 0x6f, 0x6e, 0x76, 0x31, 0x5f, 0x62,
  0x6e, 0x2f, 0x46, 0x75, 0x73, 0x65, 0x64, 0x42, 0x61, 0x74, 0x63, 0x68,
  0x4e, 0x6f, 0x72, 0x6d, 0x56, 0x33, 0x3b, 0x6d, 0x6f, 0x64, 0x65, 0x6c,
  0x2f, 0x63, 0x6f, 0x6e, 0x76, 0x32, 0x64, 0x2f, 0x43, 0x6f, 0x6e, 0x76,
  0x32, 0x44, 0x00, 0x00, 0x04, 0x00, 0x00, 0x00, 0x01, 0x00, 0x00, 0x00,
  0x10, 0x00, 0x00, 0x00, 0x10, 0x00, 0x00, 0x00, 0x01, 0x00, 0x00, 0x00,
  0x80, 0xed, 0xff, 0xff, 0x18, 0x00, 0x00, 0x00, 0x28, 0x00, 0x00, 0x00,
  0x48, 0x00, 0x00, 0x00, 0x1d, 0x00, 0x00, 0x00, 0x00, 0x00, 0x00, 0x09,
  0x5c, 0x00, 0x00, 0x00, 0x04, 0x00, 0x00, 0x00, 0xff, 0xff, 0xff, 0xff,
  0x1f, 0x00, 0x00, 0x00, 0x1f, 0x00, 0x00, 0x00, 0x02, 0x00, 0x00, 0x00,
  0x6c, 0xed, 0xff, 0xff, 0x08, 0x00, 0x00, 0x00, 0x14, 0x00, 0x00, 0x00,
  0x01, 0x00, 0x00, 0x00, 0x80, 0xff, 0xff, 0xff, 0xff, 0xff, 0xff, 0xff,
  0x00, 0x00, 0x00, 0x00, 0x01, 0x00, 0x00, 0x00, 0x00, 0x00, 0x80, 0x3f,
  0x18, 0x00, 0x00, 0x00, 0x6d, 0x6f, 0x64, 0x65, 0x6c, 0x2f, 0x63, 0x6f,
  0x6e, 0x63, 0x61, 0x74, 0x65, 0x6e, 0x61, 0x74, 0x65, 0x2f, 0x63, 0x6f,
  0x6e, 0x63, 0x61, 0x74, 0x00, 0x00, 0x00, 0x00, 0x04, 0x00, 0x00, 0x00,
  0x01, 0x00, 0x00, 0x00, 0x1f, 0x00, 0x00, 0x00, 0x1f, 0x00, 0x00, 0x00,
  0x02, 0x00, 0x00, 0x00, 0x08, 0xee, 0xff, 0xff, 0x18, 0x00, 0x00, 0x00,
  0x28, 0x00, 0x00, 0x00, 0x48, 0x00, 0x00, 0x00, 0x1c, 0x00, 0x00, 0x00,
  0x00, 0x00, 0x00, 0x09, 0x5c, 0x00, 0x00, 0x00, 0x04, 0x00, 0x00, 0x00,
  0xff, 0xff, 0xff, 0xff, 0x1f, 0x00, 0x00, 0x00, 0x1f, 0x00, 0x00, 0x00,
  0x01, 0x00, 0x00, 0x00, 0xf4, 0xed, 0xff, 0xff, 0x08, 0x00, 0x00, 0x00,
  0x14, 0x00, 0x00, 0x00, 0x01, 0x00, 0x00, 0x00, 0x80, 0xff, 0xff, 0xff,
  0xff, 0xff, 0xff, 0xff, 0x00, 0x00, 0x00, 0x00, 0x01, 0x00, 0x00, 0x00,
  0x00, 0x00, 0x80, 0x3f, 0x1b, 0x00, 0x00, 0x00, 0x6d, 0x6f, 0x64, 0x65,
  0x6c, 0x2f, 0x6d, 0x61, 0x78, 0x5f, 0x70, 0x6f, 0x6f, 0x6c, 0x69, 0x6e,
  0x67, 0x32, 0x64, 0x2f, 0x4d, 0x61, 0x78, 0x50, 0x6f, 0x6f, 0x6c, 0x00,
  0x04, 0x00, 0x00, 0x00, 0x01, 0x00, 0x00, 0x00, 0x1f, 0x00, 0x00, 0x00,
  0x1f, 0x00, 0x00, 0x00, 0x01, 0x00, 0x00, 0x00, 0x90, 0xee, 0xff, 0xff,
  0x18, 0x00, 0x00, 0x00, 0x28, 0x00, 0x00, 0x00, 0x44, 0x00, 0x00, 0x00,
  0x1b, 0x00, 0x00, 0x00, 0x00, 0x00, 0x00, 0x09, 0x5c, 0x00, 0x00, 0x00,
  0x04, 0x00, 0x00, 0x00, 0xff, 0xff, 0xff, 0xff, 0x1f, 0x00, 0x00, 0x00,
  0x1f, 0x00, 0x00, 0x00, 0x01, 0x00, 0x00, 0x00, 0x7c, 0xee, 0xff, 0xff,
  0x08, 0x00, 0x00, 0x00, 0x10, 0x00, 0x00, 0x00, 0x01, 0x00, 0x00, 0x00,
  0x80, 0xff, 0xff, 0xff, 0xff, 0xff, 0xff, 0xff, 0x01, 0x00, 0x00, 0x00,
  0x00, 0x00, 0x80, 0x3f, 0x1f, 0x00, 0x00, 0x00, 0x6d, 0x6f, 0x64, 0x65,
  0x6c, 0x2f, 0x61, 0x76, 0x65, 0x72, 0x61, 0x67, 0x65, 0x5f, 0x70, 0x6f,
  0x6f, 0x6c, 0x69, 0x6e, 0x67, 0x32, 0x64, 0x2f, 0x41, 0x76, 0x67, 0x50,
  0x6f, 0x6f, 0x6c, 0x00, 0x04, 0x00, 0x00, 0x00, 0x01, 0x00, 0x00, 0x00,
  0x1f, 0x00, 0x00, 0x00, 0x1f, 0x00, 0x00, 0x00, 0x01, 0x00, 0x00, 0x00,
  0x86, 0xef, 0xff, 0xff, 0x14, 0x00, 0x00, 0x00, 0x34, 0x00, 0x00, 0x00,
  0x1a, 0x00, 0x00, 0x00, 0x00, 0x00, 0x00, 0x02, 0x5c, 0x00, 0x00, 0x00,
  0xec, 0xee, 0xff, 0xff, 0x08, 0x00, 0x00, 0x00, 0x14, 0x00, 0x00, 0x00,
  0x01, 0x00, 0x00, 0x00, 0x00, 0x00, 0x00, 0x00, 0x00, 0x00, 0x00, 0x00,
  0x00, 0x00, 0x00, 0x00, 0x01, 0x00, 0x00, 0x00, 0xe4, 0xcb, 0x15, 0x39,
  0x2d, 0x00, 0x00, 0x00, 0x6d, 0x6f, 0x64, 0x65, 0x6c, 0x2f, 0x64, 0x65,
  0x6e, 0x73, 0x65, 0x5f, 0x31, 0x2f, 0x42, 0x69, 0x61, 0x73, 0x41, 0x64,
  0x64, 0x2f, 0x52, 0x65, 0x61, 0x64, 0x56, 0x61, 0x72, 0x69, 0x61, 0x62,
  0x6c, 0x65, 0x4f, 0x70, 0x2f, 0x72, 0x65, 0x73, 0x6f, 0x75, 0x72, 0x63,
  0x65, 0x00, 0x00, 0x00, 0x01, 0x00, 0x00, 0x00, 0x04, 0x00, 0x00, 0x00,
  0xfe, 0xef, 0xff, 0xff, 0x14, 0x00, 0x00, 0x00, 0x30, 0x00, 0x00, 0x00,
  0x19, 0x00, 0x00, 0x00, 0x00, 0x00, 0x00, 0x09, 0x40, 0x00, 0x00, 0x00,
  0x64, 0xef, 0xff, 0xff, 0x08, 0x00, 0x00, 0x00, 0x10, 0x00, 0x00, 0x00,
  0x01, 0x00, 0x00, 0x00, 0x00, 0x00, 0x00, 0x00, 0x00, 0x00, 0x00, 0x00,
  0x01, 0x00, 0x00, 0x00, 0x4d, 0x64, 0xc8, 0x3c, 0x14, 0x00, 0x00, 0x00,
  0x6d, 0x6f, 0x64, 0x65, 0x6c, 0x2f, 0x64, 0x65, 0x6e, 0x73, 0x65, 0x5f,
  0x31, 0x2f, 0x4d, 0x61, 0x74, 0x4d, 0x75, 0x6c, 0x00, 0x00, 0x00, 0x00,
  0x02, 0x00, 0x00, 0x00, 0x04, 0x00, 0x00, 0x00, 0x20, 0x00, 0x00, 0x00,
  0x5e, 0xf0, 0xff, 0xff, 0x14, 0x00, 0x00, 0x00, 0x30, 0x00, 0x00, 0x00,
  0x18, 0x00, 0x00, 0x00, 0x00, 0x00, 0x00, 0x02, 0x54, 0x00, 0x00, 0x00,
  0xc4, 0xef, 0xff, 0xff, 0x08, 0x00, 0x00, 0x00, 0x10, 0x00, 0x00, 0x00,
  0x01, 0x00, 0x00, 0x00, 0x00, 0x00, 0x00, 0x00, 0x00, 0x00, 0x00, 0x00,
  0x01, 0x00, 0x00, 0x00, 0x4f, 0x27, 0x65, 0x38, 0x2b, 0x00, 0x00, 0x00,
  0x6d, 0x6f, 0x64, 0x65, 0x6c, 0x2f, 0x64, 0x65, 0x6e, 0x73, 0x65, 0x2f,
  0x42, 0x69, 0x61, 0x73, 0x41, 0x64, 0x64, 0x2f, 0x52, 0x65, 0x61, 0x64,
  0x56, 0x61, 0x72, 0x69, 0x61, 0x62, 0x6c, 0x65, 0x4f, 0x70, 0x2f, 0x72,
  0x65, 0x73, 0x6f, 0x75, 0x72, 0x63, 0x65, 0x00, 0x01, 0x00, 0x00, 0x00,
  0x20, 0x00, 0x00, 0x00, 0xce, 0xf0, 0xff, 0xff, 0x14, 0x00, 0x00, 0x00,
  0x34, 0x00, 0x00, 0x00, 0x17, 0x00, 0x00, 0x00, 0x00, 0x00, 0x00, 0x09,
  0x40, 0x00, 0x00, 0x00, 0x34, 0xf0, 0xff, 0xff, 0x08, 0x00, 0x00, 0x00,
  0x14, 0x00, 0x00, 0x00, 0x01, 0x00, 0x00, 0x00, 0x00, 0x00, 0x00, 0x00,
  0x00, 0x00, 0x00, 0x00, 0x00, 0x00, 0x00, 0x00, 0x01, 0x00, 0x00, 0x00,
  0x87, 0x10, 0x0e, 0x3c, 0x12, 0x00, 0x00, 0x00, 0x6d, 0x6f, 0x64, 0x65,
  0x6c, 0x2f, 0x64, 0x65, 0x6e, 0x73, 0x65, 0x2f, 0x4d, 0x61, 0x74, 0x4d,
  0x75, 0x6c, 0x00, 0x00, 0x02, 0x00, 0x00, 0x00, 0x20, 0x00, 0x00, 0x00,
  0x06, 0x00, 0x00, 0x00, 0x2e, 0xf1, 0xff, 0xff, 0x14, 0x00, 0x00, 0x00,
  0x70, 0x00, 0x00, 0x00, 0x16, 0x00, 0x00, 0x00, 0x00, 0x00, 0x00, 0x02,
  0xbc, 0x00, 0x00, 0x00, 0x94, 0xf0, 0xff, 0xff, 0x08, 0x00, 0x00, 0x00,
  0x3c, 0x00, 0x00, 0x00, 0x06, 0x00, 0x00, 0x00, 0x00, 0x00, 0x00, 0x00,
  0x00, 0x00, 0x00, 0x00, 0x00, 0x00, 0x00, 0x00, 0x00, 0x00, 0x00, 0x00,
  0x00, 0x00, 0x00, 0x00, 0x00, 0x00, 0x00, 0x00, 0x00, 0x00, 0x00, 0x00,
  0x00, 0x00, 0x00, 0x00, 0x00, 0x00, 0x00, 0x00, 0x00, 0x00, 0x00, 0x00,
  0x00, 0x00, 0x00, 0x00, 0x00, 0x00, 0x00, 0x00, 0x00, 0x00, 0x00, 0x00,
  0x06, 0x00, 0x00, 0x00, 0xf2, 0x05, 0x59, 0x39, 0xd8, 0x82, 0xfe, 0x39,
  0x3e, 0xe9, 0x6c, 0x39, 0xa3, 0x08, 0x9b, 0x39, 0xba, 0x71, 0x95, 0x39,
  0x9b, 0x7a, 0xed, 0x39, 0x53, 0x00, 0x00, 0x00, 0x6d, 0x6f, 0x64, 0x65,
  0x6c, 0x2f, 0x6c, 0x61, 0x73, 0x74, 0x5f, 0x62, 0x6e, 0x2f, 0x46, 0x75,
  0x73, 0x65, 0x64, 0x42, 0x61, 0x74, 0x63, 0x68, 0x4e, 0x6f, 0x72, 0x6d,
  0x56, 0x33, 0x3b, 0x6d, 0x6f, 0x64, 0x65, 0x6c, 0x2f, 0x62, 0x6c, 0x6f,
  0x63, 0x6b, 0x5f, 0x32, 0x5f, 0x63, 0x6f, 0x6d, 0x70, 0x72, 0x65, 0x73,
  0x73, 0x2f, 0x43, 0x6f, 0x6e, 0x76, 0x32, 0x44, 0x3b, 0x6d, 0x6f, 0x64,
  0x65, 0x6c, 0x2f, 0x6c, 0x61, 0x73, 0x74, 0x5f, 0x63, 0x6f, 0x6e, 0x76,
  0x2f, 0x43, 0x6f, 0x6e, 0x76, 0x32, 0x44, 0x00, 0x01, 0x00, 0x00, 0x00,
  0x06, 0x00, 0x00, 0x00, 0x06, 0xf2, 0xff, 0xff, 0x14, 0x00, 0x00, 0x00,
  0x70, 0x00, 0x00, 0x00, 0x15, 0x00, 0x00, 0x00, 0x00, 0x00, 0x00, 0x09,
  0x80, 0x00, 0x00, 0x00, 0x6c, 0xf1, 0xff, 0xff, 0x08, 0x00, 0x00, 0x00,
  0x3c, 0x00, 0x00, 0x00, 0x06, 0x00, 0x00, 0x00, 0x00, 0x00, 0x00, 0x00,
  0x00, 0x00, 0x00, 0x00, 0x00, 0x00, 0x00, 0x00, 0x00, 0x00, 0x00, 0x00,
  0x00, 0x00, 0x00, 0x00, 0x00, 0x00, 0x00, 0x00, 0x00, 0x00, 0x00, 0x00,
  0x00, 0x00, 0x00, 0x00, 0x00, 0x00, 0x00, 0x00, 0x00, 0x00, 0x00, 0x00,
  0x00, 0x00, 0x00, 0x00, 0x00, 0x00, 0x00, 0x00, 0x00, 0x00, 0x00, 0x00,
  0x06, 0x00, 0x00, 0x00, 0xab, 0x81, 0x8a, 0x3b, 0x83, 0x6e, 0x22, 0x3c,
  0xfd, 0x32, 0x97, 0x3b, 0x6b, 0xe3, 0xc5, 0x3b, 0xf9, 0xc0, 0xbe, 0x3b,
  0xc3, 0x8f, 0x17, 0x3c, 0x16, 0x00, 0x00, 0x00, 0x6d, 0x6f, 0x64, 0x65,
  0x6c, 0x2f, 0x6c, 0x61, 0x73, 0x74, 0x5f, 0x63, 0x6f, 0x6e, 0x76, 0x2f,
  0x43, 0x6f, 0x6e, 0x76, 0x32, 0x44, 0x00, 0x00, 0x04, 0x00, 0x00, 0x00,
  0x06, 0x00, 0x00, 0x00, 0x01, 0x00, 0x00, 0x00, 0x01, 0x00, 0x00, 0x00,
  0x06, 0x00, 0x00, 0x00, 0xae, 0xf2, 0xff, 0xff, 0x14, 0x00, 0x00, 0x00,
  0x6c, 0x00, 0x00, 0x00, 0x14, 0x00, 0x00, 0x00, 0x00, 0x00, 0x00, 0x02,
  0xcc, 0x00, 0x00, 0x00, 0x14, 0xf2, 0xff, 0xff, 0x08, 0x00, 0x00, 0x00,
  0x38, 0x00, 0x00, 0x00, 0x06, 0x00, 0x00, 0x00, 0x00, 0x00, 0x00, 0x00,
  0x00, 0x00, 0x00, 0x00, 0x00, 0x00, 0x00, 0x00, 0x00, 0x00, 0x00, 0x00,
  0x00, 0x00, 0x00, 0x00, 0x00, 0x00, 0x00, 0x00, 0x00, 0x00, 0x00, 0x00,
  0x00, 0x00, 0x00, 0x00, 0x00, 0x00, 0x00, 0x00, 0x00, 0x00, 0x00, 0x00,
  0x00, 0x00, 0x00, 0x00, 0x00, 0x00, 0x00, 0x00, 0x06, 0x00, 0x00, 0x00,
  0xd7, 0xe4, 0x7a, 0x39, 0xdc, 0x31, 0x56, 0x39, 0xfb, 0xc5, 0x26, 0x39,
  0x95, 0xec, 0x2e, 0x39, 0x12, 0x4e, 0x5a, 0x39, 0x85, 0xdf, 0xc6, 0x38,
  0x66, 0x00, 0x00, 0x00, 0x6d, 0x6f, 0x64, 0x65, 0x6c, 0x2f, 0x62, 0x6c,
  0x6f, 0x63, 0x6b, 0x5f, 0x33, 0x5f, 0x63, 0x6f, 0x6d, 0x70, 0x72, 0x65,
  0x73, 0x73, 0x5f, 0x62, 0x6e, 0x2f, 0x46, 0x75, 0x73, 0x65, 0x64, 0x42,
  0x61, 0x74, 0x63, 0x68, 0x4e, 0x6f, 0x72, 0x6d, 0x56, 0x33, 0x3b, 0x6d,
  0x6f, 0x64, 0x65, 0x6c, 0x2f, 0x62, 0x6c, 0x6f, 0x63, 0x6b, 0x5f, 0x32,
  0x5f, 0x63, 0x6f, 0x6d, 0x70, 0x72, 0x65, 0x73, 0x73, 0x2f, 0x43, 0x6f,
  0x6e, 0x76, 0x32, 0x44, 0x3b, 0x6d, 0x6f, 0x64, 0x65, 0x6c, 0x2f, 0x62,
  0x6c, 0x6f, 0x63, 0x6b, 0x5f, 0x33, 0x5f, 0x63, 0x6f, 0x6d, 0x70, 0x72,
  0x65, 0x73, 0x73, 0x2f, 0x43, 0x6f, 0x6e, 0x76, 0x32, 0x44, 0x00, 0x00,
  0x01, 0x00, 0x00, 0x00, 0x06, 0x00, 0x00, 0x00, 0x96, 0xf3, 0xff, 0xff,
  0x14, 0x00, 0x00, 0x00, 0x70, 0x00, 0x00, 0x00, 0x13, 0x00, 0x00, 0x00,
  0x00, 0x00, 0x00, 0x09, 0x88, 0x00, 0x00, 0x00, 0xfc, 0xf2, 0xff, 0xff,
  0x08, 0x00, 0x00, 0x00, 0x3c, 0x00, 0x00, 0x00, 0x06, 0x00, 0x00, 0x00,
  0x00, 0x00, 0x00, 0x00, 0x00, 0x00, 0x00, 0x00, 0x00, 0x00, 0x00, 0x00,
  0x00, 0x00, 0x00, 0x00, 0x00, 0x00, 0x00, 0x00, 0x00, 0x00, 0x00, 0x00,
  0x00, 0x00, 0x00, 0x00, 0x00, 0x00, 0x00, 0x00, 0x00, 0x00, 0x00, 0x00,
  0x00, 0x00, 0x00, 0x00, 0x00, 0x00, 0x00, 0x00, 0x00, 0x00, 0x00, 0x00,
  0x00, 0x00, 0x00, 0x00, 0x06, 0x00, 0x00, 0x00, 0x71, 0xfe, 0x61, 0x3c,
  0xde, 0xef, 0x40, 0x3c, 0xd0, 0x38, 0x16, 0x3c, 0x54, 0x90, 0x1d, 0x3c,
  0xa7, 0xa3, 0x44, 0x3c, 0xcd, 0x22, 0xb3, 0x3b, 0x1d, 0x00, 0x00, 0x00,
  0x6d, 0x6f, 0x64, 0x65, 0x6c, 0x2f, 0x62, 0x6c, 0x6f, 0x63, 0x6b, 0x5f,
  0x33, 0x5f, 0x63, 0x6f, 0x6d, 0x70, 0x72, 0x65, 0x73, 0x73, 0x2f, 0x43,
  0x6f, 0x6e, 0x76, 0x32, 0x44, 0x00, 0x00, 0x00, 0x04, 0x00, 0x00, 0x00,
  0x06, 0x00, 0x00, 0x00, 0x01, 0x00, 0x00, 0x00, 0x01, 0x00, 0x00, 0x00,
  0x06, 0x00, 0x00, 0x00, 0x46, 0xf4, 0xff, 0xff, 0x14, 0x00, 0x00, 0x00,
  0x6c, 0x00, 0x00, 0x00, 0x12, 0x00, 0x00, 0x00, 0x00, 0x00, 0x00, 0x02,
  0xd0, 0x00, 0x00, 0x00, 0xac, 0xf3, 0xff, 0xff, 0x08, 0x00, 0x00, 0x00,
  0x38, 0x00, 0x00, 0x00, 0x06, 0x00, 0x00, 0x00, 0x00, 0x00, 0x00, 0x00,
  0x00, 0x00, 0x00, 0x00, 0x00, 0x00, 0x00, 0x00, 0x00, 0x00, 0x00, 0x00,
  0x00, 0x00, 0x00, 0x00, 0x00, 0x00, 0x00, 0x00, 0x00, 0x00, 0x00, 0x00,
  0x00, 0x00, 0x00, 0x00, 0x00, 0x00, 0x00, 0x00, 0x00, 0x00, 0x00, 0x00,
  0x00, 0x00, 0x00, 0x00, 0x00, 0x00, 0x00, 0x00, 0x06, 0x00, 0x00, 0x00,
  0x70, 0xdf, 0x50, 0x39, 0xd5, 0x46, 0x86, 0x39, 0xe0, 0xc5, 0x89, 0x38,
  0x5b, 0xda, 0x22, 0x3a, 0xa4, 0xbd, 0x4a, 0x39, 0xf1, 0x96, 0x96, 0x39,
  0x69, 0x00, 0x00, 0x00, 0x6d, 0x6f, 0x64, 0x65, 0x6c, 0x2f, 0x62, 0x6c,
  0x6f, 0x63, 0x6b, 0x5f, 0x33, 0x5f, 0x64, 0x77, 0x5f, 0x62, 0x6e, 0x2f,
  0x46, 0x75, 0x73, 0x65, 0x64, 0x42, 0x61, 0x74, 0x63, 0x68, 0x4e, 0x6f,
  0x72, 0x6d, 0x56, 0x33, 0x3b, 0x6d, 0x6f, 0x64, 0x65, 0x6c, 0x2f, 0x62,
  0x6c, 0x6f, 0x63, 0x6b, 0x5f, 0x32, 0x5f, 0x63, 0x6f, 0x6d, 0x70, 0x72,
  0x65, 0x73, 0x73, 0x2f, 0x43, 0x6f, 0x6e, 0x76, 0x32, 0x44, 0x3b, 0x6d,
  0x6f, 0x64, 0x65, 0x6c, 0x2f, 0x62, 0x6c, 0x6f, 0x63, 0x6b, 0x5f, 0x33,
  0x5f, 0x64, 0x65, 0x70, 0x74, 0x68, 0x77, 0x69, 0x73, 0x65, 0x5f, 0x63,
  0x6f, 0x6e, 0x76, 0x2f, 0x64, 0x65, 0x70, 0x74, 0x68, 0x77, 0x69, 0x73,
  0x65, 0x00, 0x00, 0x00, 0x01, 0x00, 0x00, 0x00, 0x06, 0x00, 0x00, 0x00,
  0x32, 0xf5, 0xff, 0xff, 0x14, 0x00, 0x00, 0x00, 0x70, 0x00, 0x00, 0x00,
  0x11, 0x00, 0x00, 0x00, 0x00, 0x00, 0x00, 0x09, 0xd4, 0x00, 0x00, 0x00,
  0xe2, 0xf6, 0xff, 0xff, 0x03, 0x00, 0x00, 0x00, 0x08, 0x00, 0x00, 0x00,
  0x38, 0x00, 0x00, 0x00, 0x06, 0x00, 0x00, 0x00, 0x00, 0x00, 0x00, 0x00,
  0x00, 0x00, 0x00, 0x00, 0x00, 0x00, 0x00, 0x00, 0x00, 0x00, 0x00, 0x00,
  0x00, 0x00, 0x00, 0x00, 0x00, 0x00, 0x00, 0x00, 0x00, 0x00, 0x00, 0x00,
  0x00, 0x00, 0x00, 0x00, 0x00, 0x00, 0x00, 0x00, 0x00, 0x00, 0x00, 0x00,
  0x00, 0x00, 0x00, 0x00, 0x00, 0x00, 0x00, 0x00, 0x06, 0x00, 0x00, 0x00,
  0x60, 0xb4, 0x0a, 0x3c, 0x13, 0x56, 0x32, 0x3c, 0xcd, 0xfa, 0x36, 0x3b,
  0x01, 0x4a, 0xd8, 0x3c, 0xef, 0xa1, 0x06, 0x3c, 0x78, 0x00, 0x48, 0x3c,
  0x69, 0x00, 0x00, 0x00, 0x6d, 0x6f, 0x64, 0x65, 0x6c, 0x2f, 0x62, 0x6c,
  0x6f, 0x63, 0x6b, 0x5f, 0x33, 0x5f, 0x64, 0x77, 0x5f, 0x62, 0x6e, 0x2f,
  0x46, 0x75, 0x73, 0x65, 0x64, 0x42, 0x61, 0x74, 0x63, 0x68, 0x4e, 0x6f,
  0x72, 0x6d, 0x56, 0x33, 0x3b, 0x6d, 0x6f, 0x64, 0x65, 0x6c, 0x2f, 0x62,
  0x6c, 0x6f, 0x63, 0x6b, 0x5f, 0x33, 0x5f, 0x64, 0x65, 0x70, 0x74, 0x68,
  0x77, 0x69, 0x73, 0x65, 0x5f, 0x63, 0x6f, 0x6e, 0x76, 0x2f, 0x64, 0x65,
  0x70, 0x74, 0x68, 0x77, 0x69, 0x73, 0x65, 0x3b, 0x6d, 0x6f, 0x64, 0x65,
  0x6c, 0x2f, 0x62, 0x6c, 0x6f, 0x63, 0x6b, 0x5f, 0x32, 0x5f, 0x63, 0x6f,
  0x6d, 0x70, 0x72, 0x65, 0x73, 0x73, 0x2f, 0x43, 0x6f, 0x6e, 0x76, 0x32,
  0x44, 0x00, 0x00, 0x00, 0x04, 0x00, 0x00, 0x00, 0x01, 0x00, 0x00, 0x00,
  0x03, 0x00, 0x00, 0x00, 0x03, 0x00, 0x00, 0x00, 0x06, 0x00, 0x00, 0x00,
  0x2e, 0xf6, 0xff, 0xff, 0x14, 0x00, 0x00, 0x00, 0x70, 0x00, 0x00, 0x00,
  0x10, 0x00, 0x00, 0x00, 0x00, 0x00, 0x00, 0x02, 0xcc, 0x00, 0x00, 0x00,
  0x94, 0xf5, 0xff, 0xff, 0x08, 0x00, 0x00, 0x00, 0x3c, 0x00, 0x00, 0x00,
  0x06, 0x00, 0x00, 0x00, 0x00, 0x00, 0x00, 0x00, 0x00, 0x00, 0x00, 0x00,
  0x00, 0x00, 0x00, 0x00, 0x00, 0x00, 0x00, 0x00, 0x00, 0x00, 0x00, 0x00,
  0x00, 0x00, 0x00, 0x00, 0x00, 0x00, 0x00, 0x00, 0x00, 0x00, 0x00, 0x00,
  0x00, 0x00, 0x00, 0x00, 0x00, 0x00, 0x00, 0x00, 0x00, 0x00, 0x00, 0x00,
  0x00, 0x00, 0x00, 0x00, 0x00, 0x00, 0x00, 0x00, 0x06, 0x00, 0x00, 0x00,
  0x19, 0x04, 0x07, 0x39, 0xc7, 0xd6, 0x10, 0x39, 0xd2, 0x7b, 0x75, 0x39,
  0xf9, 0x3e, 0xeb, 0x38, 0x67, 0x28, 0x05, 0x39, 0xbe, 0xee, 0x80, 0x38,
  0x62, 0x00, 0x00, 0x00, 0x6d, 0x6f, 0x64, 0x65, 0x6c, 0x2f, 0x62, 0x6c,
  0x6f, 0x63, 0x6b, 0x5f, 0x33, 0x5f, 0x65, 0x78, 0x70, 0x61, 0x6e, 0x64,
  0x5f, 0x62, 0x6e, 0x2f, 0x46, 0x75, 0x73, 0x65, 0x64, 0x42, 0x61, 0x74,
  0x63, 0x68, 0x4e, 0x6f, 0x72, 0x6d, 0x56, 0x33, 0x3b, 0x6d, 0x6f, 0x64,
  0x65, 0x6c, 0x2f, 0x62, 0x6c, 0x6f, 0x63, 0x6b, 0x5f, 0x32, 0x5f, 0x63,
  0x6f, 0x6d, 0x70, 0x72, 0x65, 0x73, 0x73, 0x2f, 0x43, 0x6f, 0x6e, 0x76,
  0x32, 0x44, 0x3b, 0x6d, 0x6f, 0x64, 0x65, 0x6c, 0x2f, 0x62, 0x6c, 0x6f,
  0x63, 0x6b, 0x5f, 0x33, 0x5f, 0x65, 0x78, 0x70, 0x61, 0x6e, 0x64, 0x2f,
  0x43, 0x6f, 0x6e, 0x76, 0x32, 0x44, 0x00, 0x00, 0x01, 0x00, 0x00, 0x00,
  0x06, 0x00, 0x00, 0x00, 0x16, 0xf7, 0xff, 0xff, 0x14, 0x00, 0x00, 0x00,
  0x6c, 0x00, 0x00, 0x00, 0x0f, 0x00, 0x00, 0x00, 0x00, 0x00, 0x00, 0x09,
  0x80, 0x00, 0x00, 0x00, 0x7c, 0xf6, 0xff, 0xff, 0x08, 0x00, 0x00, 0x00,
  0x38, 0x00, 0x00, 0x00, 0x06, 0x00, 0x00, 0x00, 0x00, 0x00, 0x00, 0x00,
  0x00, 0x00, 0x00, 0x00, 0x00, 0x00, 0x00, 0x00, 0x00, 0x00, 0x00, 0x00,
  0x00, 0x00, 0x00, 0x00, 0x00, 0x00, 0x00, 0x00, 0x00, 0x00, 0x00, 0x00,
  0x00, 0x00, 0x00, 0x00, 0x00, 0x00, 0x00, 0x00, 0x00, 0x00, 0x00, 0x00,
  0x00, 0x00, 0x00, 0x00, 0x00, 0x00, 0x00, 0x00, 0x06, 0x00, 0x00, 0x00,
  0x25, 0xd5, 0x80, 0x3b, 0xa9, 0x34, 0x8a, 0x3b, 0xb9, 0x3d, 0xea, 0x3b,
  0xe8, 0x78, 0x60, 0x3b, 0x78, 0x1e, 0x7e, 0x3b, 0x3a, 0x0e, 0xf6, 0x3a,
  0x1b, 0x00, 0x00, 0x00, 0x6d, 0x6f, 0x64, 0x65, 0x6c, 0x2f, 0x62, 0x6c,
  0x6f, 0x63, 0x6b, 0x5f, 0x33, 0x5f, 0x65, 0x78, 0x70, 0x61, 0x6e, 0x64,
  0x2f, 0x43, 0x6f, 0x6e, 0x76, 0x32, 0x44, 0x00, 0x04, 0x00, 0x00, 0x00,
  0x06, 0x00, 0x00, 0x00, 0x01, 0x00, 0x00, 0x00, 0x01, 0x00, 0x00, 0x00,
  0x06, 0x00, 0x00, 0x00, 0xbe, 0xf7, 0xff, 0xff, 0x14, 0x00, 0x00, 0x00,
  0x70, 0x00, 0x00, 0x00, 0x0e, 0x00, 0x00, 0x00, 0x00, 0x00, 0x00, 0x02,
  0xb4, 0x00, 0x00, 0x00, 0x24, 0xf7, 0xff, 0xff, 0x08, 0x00, 0x00, 0x00,
  0x3c, 0x00, 0x00, 0x00, 0x06, 0x00, 0x00, 0x00, 0x00, 0x00, 0x00, 0x00,
  0x00, 0x00, 0x00, 0x00, 0x00, 0x00, 0x00, 0x00, 0x00, 0x00, 0x00, 0x00,
  0x00, 0x00, 0x00, 0x00, 0x00, 0x00, 0x00, 0x00, 0x00, 0x00, 0x00, 0x00,
  0x00, 0x00, 0x00, 0x00, 0x00, 0x00, 0x00, 0x00, 0x00, 0x00, 0x00, 0x00,
  0x00, 0x00, 0x00, 0x00, 0x00, 0x00, 0x00, 0x00, 0x00, 0x00, 0x00, 0x00,
  0x06, 0x00, 0x00, 0x00, 0xd7, 0x48, 0xe7, 0x38, 0x9c, 0xe2, 0x2d, 0x39,
  0x46, 0xd7, 0x33, 0x39, 0x8c, 0x90, 0x4a, 0x39, 0x12, 0x63, 0x8a, 0x38,
  0xc3, 0xaf, 0x06, 0x39, 0x48, 0x00, 0x00, 0x00, 0x6d, 0x6f, 0x64, 0x65,
  0x6c, 0x2f, 0x62, 0x6c, 0x6f, 0x63, 0x6b, 0x5f, 0x32, 0x5f, 0x63, 0x6f,
  0x6d, 0x70, 0x72, 0x65, 0x73, 0x73, 0x5f, 0x62, 0x6e, 0x2f, 0x46, 0x75,
  0x73, 0x65, 0x64, 0x42, 0x61, 0x74, 0x63, 0x68, 0x4e, 0x6f, 0x72, 0x6d,
  0x56, 0x33, 0x3b, 0x6d, 0x6f, 0x64, 0x65, 0x6c, 0x2f, 0x62, 0x6c, 0x6f,
  0x63, 0x6b, 0x5f, 0x32, 0x5f, 0x63, 0x6f, 0x6d, 0x70, 0x72, 0x65, 0x73,
  0x73, 0x2f, 0x43, 0x6f, 0x6e, 0x76, 0x32, 0x44, 0x00, 0x00, 0x00, 0x00,
  0x01, 0x00, 0x00, 0x00, 0x06, 0x00, 0x00, 0x00, 0x8e, 0xf8, 0xff, 0xff,
  0x14, 0x00, 0x00, 0x00, 0x70, 0x00, 0x00, 0x00, 0x0d, 0x00, 0x00, 0x00,
  0x00, 0x00, 0x00, 0x09, 0x88, 0x00, 0x00, 0x00, 0xf4, 0xf7, 0xff, 0xff,
  0x08, 0x00, 0x00, 0x00, 0x3c, 0x00, 0x00, 0x00, 0x06, 0x00, 0x00, 0x00,
  0x00, 0x00, 0x00, 0x00, 0x00, 0x00, 0x00, 0x00, 0x00, 0x00, 0x00, 0x00,
  0x00, 0x00, 0x00, 0x00, 0x00, 0x00, 0x00, 0x00, 0x00, 0x00, 0x00, 0x00,
  0x00, 0x00, 0x00, 0x00, 0x00, 0x00, 0x00, 0x00, 0x00, 0x00, 0x00, 0x00,
  0x00, 0x00, 0x00, 0x00, 0x00, 0x00, 0x00, 0x00, 0x00, 0x00, 0x00, 0x00,
  0x00, 0x00, 0x00, 0x00, 0x06, 0x00, 0x00, 0x00, 0x9d, 0x71, 0xe6, 0x3b,
  0xcc, 0x40, 0x2d, 0x3c, 0xeb, 0x2f, 0x33, 0x3c, 0x0c, 0xd4, 0x49, 0x3c,
  0x4b, 0xe2, 0x89, 0x3b, 0x6d, 0x32, 0x06, 0x3c, 0x1d, 0x00, 0x00, 0x00,
  0x6d, 0x6f, 0x64, 0x65, 0x6c, 0x2f, 0x62, 0x6c, 0x6f, 0x63, 0x6b, 0x5f,
  0x32, 0x5f, 0x63, 0x6f, 0x6d, 0x70, 0x72, 0x65, 0x73, 0x73, 0x2f, 0x43,
  0x6f, 0x6e, 0x76, 0x32, 0x44, 0x00, 0x00, 0x00, 0x04, 0x00, 0x00, 0x00,
  0x06, 0x00, 0x00, 0x00, 0x01, 0x00, 0x00, 0x00, 0x01, 0x00, 0x00, 0x00,
  0x04, 0x00, 0x00, 0x00, 0x3e, 0xf9, 0xff, 0xff, 0x14, 0x00, 0x00, 0x00,
  0x54, 0x00, 0x00, 0x00, 0x0c, 0x00, 0x00, 0x00, 0x00, 0x00, 0x00, 0x02,
  0xb8, 0x00, 0x00, 0x00, 0xa4, 0xf8, 0xff, 0xff, 0x08, 0x00, 0x00, 0x00,
  0x28, 0x00, 0x00, 0x00, 0x04, 0x00, 0x00, 0x00, 0x00, 0x00, 0x00, 0x00,
  0x00, 0x00, 0x00, 0x00, 0x00, 0x00, 0x00, 0x00, 0x00, 0x00, 0x00, 0x00,
  0x00, 0x00, 0x00, 0x00, 0x00, 0x00, 0x00, 0x00, 0x00, 0x00, 0x00, 0x00,
  0x00, 0x00, 0x00, 0x00, 0x04, 0x00, 0x00, 0x00, 0x3b, 0x47, 0xcb, 0x38,
  0x0d, 0x7d, 0xb8, 0x38, 0x16, 0xf3, 0x0d, 0x39, 0xf9, 0x4c, 0x2d, 0x38,
  0x69, 0x00, 0x00, 0x00, 0x6d, 0x6f, 0x64, 0x65, 0x6c, 0x2f, 0x62, 0x6c,
  0x6f, 0x63, 0x6b, 0x5f, 0x32, 0x5f, 0x64, 0x77, 0x5f, 0x62, 0x6e, 0x2f,
  0x46, 0x75, 0x73, 0x65, 0x64, 0x42, 0x61, 0x74, 0x63, 0x68, 0x4e, 0x6f,
  0x72, 0x6d, 0x56, 0x33, 0x3b, 0x6d, 0x6f, 0x64, 0x65, 0x6c, 0x2f, 0x62,
  0x6c, 0x6f, 0x63, 0x6b, 0x5f, 0x32, 0x5f, 0x64, 0x65, 0x70, 0x74, 0x68,
  0x77, 0x69, 0x73, 0x65, 0x5f, 0x63, 0x6f, 0x6e, 0x76, 0x2f, 0x64, 0x65,
  0x70, 0x74, 0x68, 0x77, 0x69, 0x73, 0x65, 0x3b, 0x6d, 0x6f, 0x64, 0x65,
  0x6c, 0x2f, 0x62, 0x6c, 0x6f, 0x63, 0x6b, 0x5f, 0x31, 0x5f, 0x63, 0x6f,
  0x6d, 0x70, 0x72, 0x65, 0x73, 0x73, 0x2f, 0x43, 0x6f, 0x6e, 0x76, 0x32,
  0x44, 0x00, 0x00, 0x00, 0x01, 0x00, 0x00, 0x00, 0x04, 0x00, 0x00, 0x00,
  0x12, 0xfa, 0xff, 0xff, 0x14, 0x00, 0x00, 0x00, 0x58, 0x00, 0x00, 0x00,
  0x0b, 0x00, 0x00, 0x00, 0x00, 0x00, 0x00, 0x09, 0xbc, 0x00, 0x00, 0x00,
  0xc2, 0xfb, 0xff, 0xff, 0x03, 0x00, 0x00, 0x00, 0x08, 0x00, 0x00, 0x00,
  0x28, 0x00, 0x00, 0x00, 0x04, 0x00, 0x00, 0x00, 0x00, 0x00, 0x00, 0x00,
  0x00, 0x00, 0x00, 0x00, 0x00, 0x00, 0x00, 0x00, 0x00, 0x00, 0x00, 0x00,
  0x00, 0x00, 0x00, 0x00, 0x00, 0x00, 0x00, 0x00, 0x00, 0x00, 0x00, 0x00,
  0x00, 0x00, 0x00, 0x00, 0x04, 0x00, 0x00, 0x00, 0xd8, 0x22, 0x46, 0x3c,
  0x57, 0xd2, 0x33, 0x3c, 0xd9, 0x5b, 0x8a, 0x3c, 0xb6, 0xea, 0xa8, 0x3b,
  0x6a, 0x00, 0x00, 0x00, 0x6d, 0x6f, 0x64, 0x65, 0x6c, 0x2f, 0x62, 0x6c,
  0x6f, 0x63, 0x6b, 0x5f, 0x32, 0x5f, 0x64, 0x77, 0x5f, 0x62, 0x6e, 0x2f,
  0x46, 0x75, 0x73, 0x65, 0x64, 0x42, 0x61, 0x74, 0x63, 0x68, 0x4e, 0x6f,
  0x72, 0x6d, 0x56, 0x33, 0x3b, 0x6d, 0x6f, 0x64, 0x65, 0x6c, 0x2f, 0x62,
  0x6c, 0x6f, 0x63, 0x6b, 0x5f, 0x32, 0x5f, 0x64, 0x65, 0x70, 0x74, 0x68,
  0x77, 0x69, 0x73, 0x65, 0x5f, 0x63, 0x6f, 0x6e, 0x76, 0x2f, 0x64, 0x65,
  0x70, 0x74, 0x68, 0x77, 0x69, 0x73, 0x65, 0x3b, 0x6d, 0x6f, 0x64, 0x65,
  0x6c, 0x2f, 0x62, 0x6c, 0x6f, 0x63, 0x6b, 0x5f, 0x31, 0x5f, 0x63, 0x6f,
  0x6d, 0x70, 0x72, 0x65, 0x73, 0x73, 0x2f, 0x43, 0x6f, 0x6e, 0x76, 0x32,
  0x44, 0x31, 0x00, 0x00, 0x04, 0x00, 0x00, 0x00, 0x01, 0x00, 0x00, 0x00,
  0x03, 0x00, 0x00, 0x00, 0x03, 0x00, 0x00, 0x00, 0x04, 0x00, 0x00, 0x00,
  0xf6, 0xfa, 0xff, 0xff, 0x14, 0x00, 0x00, 0x00, 0x58, 0x00, 0x00, 0x00,
  0x0a, 0x00, 0x00, 0x00, 0x00, 0x00, 0x00, 0x02, 0xb4, 0x00, 0x00, 0x00,
  0x5c, 0xfa, 0xff, 0xff, 0x08, 0x00, 0x00, 0x00, 0x2c, 0x00, 0x00, 0x00,
  0x04, 0x00, 0x00, 0x00, 0x00, 0x00, 0x00, 0x00, 0x00, 0x00, 0x00, 0x00,
  0x00, 0x00, 0x00, 0x00, 0x00, 0x00, 0x00, 0x00, 0x00, 0x00, 0x00, 0x00,
  0x00, 0x00, 0x00, 0x00, 0x00, 0x00, 0x00, 0x00, 0x00, 0x00, 0x00, 0x00,
  0x00, 0x00, 0x00, 0x00, 0x04, 0x00, 0x00, 0x00, 0x8b, 0x29, 0xe5, 0x38,
  0x05, 0x79, 0xe7, 0x38, 0xb0, 0x48, 0x6a, 0x38, 0xd4, 0x4c, 0x89, 0x38,
  0x62, 0x00, 0x00, 0x00, 0x6d, 0x6f, 0x64, 0x65, 0x6c, 0x2f, 0x62, 0x6c,
  0x6f, 0x63, 0x6b, 0x5f, 0x32, 0x5f, 0x65, 0x78, 0x70, 0x61, 0x6e, 0x64,
  0x5f, 0x62, 0x6e, 0x2f, 0x46, 0x75, 0x73, 0x65, 0x64, 0x42, 0x61, 0x74,
  0x63, 0x68, 0x4e, 0x6f, 0x72, 0x6d, 0x56, 0x33, 0x3b, 0x6d, 0x6f, 0x64,
  0x65, 0x6c, 0x2f, 0x62, 0x6c, 0x6f, 0x63, 0x6b, 0x5f, 0x31, 0x5f, 0x63,
  0x6f, 0x6d, 0x70, 0x72, 0x65, 0x73, 0x73, 0x2f, 0x43, 0x6f, 0x6e, 0x76,
  0x32, 0x44, 0x3b, 0x6d, 0x6f, 0x64, 0x65, 0x6c, 0x2f, 0x62, 0x6c, 0x6f,
  0x63, 0x6b, 0x5f, 0x32, 0x5f, 0x65, 0x78, 0x70, 0x61, 0x6e, 0x64, 0x2f,
  0x43, 0x6f, 0x6e, 0x76, 0x32, 0x44, 0x00, 0x00, 0x01, 0x00, 0x00, 0x00,
  0x04, 0x00, 0x00, 0x00, 0xc6, 0xfb, 0xff, 0xff, 0x14, 0x00, 0x00, 0x00,
  0x54, 0x00, 0x00, 0x00, 0x09, 0x00, 0x00, 0x00, 0x00, 0x00, 0x00, 0x09,
  0x68, 0x00, 0x00, 0x00, 0x2c, 0xfb, 0xff, 0xff, 0x08, 0x00, 0x00, 0x00,
  0x28, 0x00, 0x00, 0x00, 0x04, 0x00, 0x00, 0x00, 0x00, 0x00, 0x00, 0x00,
  0x00, 0x00, 0x00, 0x00, 0x00, 0x00, 0x00, 0x00, 0x00, 0x00, 0x00, 0x00,
  0x00, 0x00, 0x00, 0x00, 0x00, 0x00, 0x00, 0x00, 0x00, 0x00, 0x00, 0x00,
  0x00, 0x00, 0x00, 0x00, 0x04, 0x00, 0x00, 0x00, 0x67, 0x53, 0x8c, 0x3b,
  0x97, 0xbd, 0x8d, 0x3b, 0x46, 0x76, 0x0f, 0x3b, 0x3d, 0x26, 0x28, 0x3b,
  0x1b, 0x00, 0x00, 0x00, 0x6d, 0x6f, 0x64, 0x65, 0x6c, 0x2f, 0x62, 0x6c,
  0x6f, 0x63, 0x6b, 0x5f, 0x32, 0x5f, 0x65, 0x78, 0x70, 0x61, 0x6e, 0x64,
  0x2f, 0x43, 0x6f, 0x6e, 0x76, 0x32, 0x44, 0x00, 0x04, 0x00, 0x00, 0x00,
  0x04, 0x00, 0x00, 0x00, 0x01, 0x00, 0x00, 0x00, 0x01, 0x00, 0x00, 0x00,
  0x04, 0x00, 0x00, 0x00, 0x56, 0xfc, 0xff, 0xff, 0x14, 0x00, 0x00, 0x00,
  0x58, 0x00, 0x00, 0x00, 0x08, 0x00, 0x00, 0x00, 0x00, 0x00, 0x00, 0x02,
  0x9c, 0x00, 0x00, 0x00, 0xbc, 0xfb, 0xff, 0xff, 0x08, 0x00, 0x00, 0x00,
  0x2c, 0x00, 0x00, 0x00, 0x04, 0x00, 0x00, 0x00, 0x00, 0x00, 0x00, 0x00,
  0x00, 0x00, 0x00, 0x00, 0x00, 0x00, 0x00, 0x00, 0x00, 0x00, 0x00, 0x00,
  0x00, 0x00, 0x00, 0x00, 0x00, 0x00, 0x00, 0x00, 0x00, 0x00, 0x00, 0x00,
  0x00, 0x00, 0x00, 0x00, 0x00, 0x00, 0x00, 0x00, 0x04, 0x00, 0x00, 0x00,
  0x87, 0x91, 0xb7, 0x38, 0x16, 0x38, 0x0c, 0x39, 0x83, 0x65, 0x0d, 0x39,
  0x22, 0x31, 0x0d, 0x39, 0x48, 0x00, 0x00, 0x00, 0x6d, 0x6f, 0x64, 0x65,
  0x6c, 0x2f, 0x62, 0x6c, 0x6f, 0x63, 0x6b, 0x5f, 0x31, 0x5f, 0x63, 0x6f,
  0x6d, 0x70, 0x72, 0x65, 0x73, 0x73, 0x5f, 0x62, 0x6e, 0x2f, 0x46, 0x75,
  0x73, 0x65, 0x64, 0x42, 0x61, 0x74, 0x63, 0x68, 0x4e, 0x6f, 0x72, 0x6d,
  0x56, 0x33, 0x3b, 0x6d, 0x6f, 0x64, 0x65, 0x6c, 0x2f, 0x62, 0x6c, 0x6f,
  0x63, 0x6b, 0x5f, 0x31, 0x5f, 0x63, 0x6f, 0x6d, 0x70, 0x72, 0x65, 0x73,
  0x73, 0x2f, 0x43, 0x6f, 0x6e, 0x76, 0x32, 0x44, 0x00, 0x00, 0x00, 0x00,
  0x01, 0x00, 0x00, 0x00, 0x04, 0x00, 0x00, 0x00, 0x0e, 0xfd, 0xff, 0xff,
  0x14, 0x00, 0x00, 0x00, 0x58, 0x00, 0x00, 0x00, 0x07, 0x00, 0x00, 0x00,
  0x00, 0x00, 0x00, 0x09, 0x70, 0x00, 0x00, 0x00, 0x74, 0xfc, 0xff, 0xff,
  0x08, 0x00, 0x00, 0x00, 0x2c, 0x00, 0x00, 0x00, 0x04, 0x00, 0x00, 0x00,
  0x00, 0x00, 0x00, 0x00, 0x00, 0x00, 0x00, 0x00, 0x00, 0x00, 0x00, 0x00,
  0x00, 0x00, 0x00, 0x00, 0x00, 0x00, 0x00, 0x00, 0x00, 0x00, 0x00, 0x00,
  0x00, 0x00, 0x00, 0x00, 0x00, 0x00, 0x00, 0x00, 0x00, 0x00, 0x00, 0x00,
  0x04, 0x00, 0x00, 0x00, 0xdc, 0x48, 0x3d, 0x3c, 0xdb, 0x95, 0x90, 0x3c,
  0xaa, 0xcc, 0x91, 0x3c, 0xa8, 0x96, 0x91, 0x3c, 0x1d, 0x00, 0x00, 0x00,
  0x6d, 0x6f, 0x64, 0x65, 0x6c, 0x2f, 0x62, 0x6c, 0x6f, 0x63, 0x6b, 0x5f,
  0x31, 0x5f, 0x63, 0x6f, 0x6d, 0x70, 0x72, 0x65, 0x73, 0x73, 0x2f, 0x43,
  0x6f, 0x6e, 0x76, 0x32, 0x44, 0x00, 0x00, 0x00, 0x04, 0x00, 0x00, 0x00,
  0x04, 0x00, 0x00, 0x00, 0x01, 0x00, 0x00, 0x00, 0x01, 0x00, 0x00, 0x00,
  0x01, 0x00, 0x00, 0x00, 0xa6, 0xfd, 0xff, 0xff, 0x14, 0x00, 0x00, 0x00,
  0x34, 0x00, 0x00, 0x00, 0x06, 0x00, 0x00, 0x00, 0x00, 0x00, 0x00, 0x02,
  0x8c, 0x00, 0x00, 0x00, 0x0c, 0xfd, 0xff, 0xff, 0x08, 0x00, 0x00, 0x00,
  0x14, 0x00, 0x00, 0x00, 0x01, 0x00, 0x00, 0x00, 0x00, 0x00, 0x00, 0x00,
  0x00, 0x00, 0x00, 0x00, 0x00, 0x00, 0x00, 0x00, 0x01, 0x00, 0x00, 0x00,
  0x26, 0x55, 0x4c, 0x38, 0x5f, 0x00, 0x00, 0x00, 0x6d, 0x6f, 0x64, 0x65,
  0x6c, 0x2f, 0x62, 0x6c, 0x6f, 0x63, 0x6b, 0x5f, 0x31, 0x5f, 0x64, 0x77,
  0x5f, 0x62, 0x6e, 0x2f, 0x46, 0x75, 0x73, 0x65, 0x64, 0x42, 0x61, 0x74,
  0x63, 0x68, 0x4e, 0x6f, 0x72, 0x6d, 0x56, 0x33, 0x3b, 0x6d, 0x6f, 0x64,
  0x65, 0x6c, 0x2f, 0x62, 0x6c, 0x6f, 0x63, 0x6b, 0x5f, 0x31, 0x5f, 0x64,
  0x65, 0x70, 0x74, 0x68, 0x77, 0x69, 0x73, 0x65, 0x5f, 0x63, 0x6f, 0x6e,
  0x76, 0x2f, 0x64, 0x65, 0x70, 0x74, 0x68, 0x77, 0x69, 0x73, 0x65, 0x3b,
  0x6d, 0x6f, 0x64, 0x65, 0x6c, 0x2f, 0x63, 0x6f, 0x6e, 0x76, 0x32, 0x64,
  0x2f, 0x43, 0x6f, 0x6e, 0x76, 0x32, 0x44, 0x00, 0x01, 0x00, 0x00, 0x00,
  0x01, 0x00, 0x00, 0x00, 0x4e, 0xfe, 0xff, 0xff, 0x28, 0x00, 0x00, 0x00,
  0x4c, 0x00, 0x00, 0x00, 0x05, 0x00, 0x00, 0x00, 0x00, 0x00, 0x00, 0x09,
  0xa8, 0x00, 0x00, 0x00, 0x00, 0x00, 0x12, 0x00, 0x10, 0x00, 0x00, 0x00,
  0x00, 0x00, 0x0c, 0x00, 0x08, 0x00, 0x00, 0x00, 0x00, 0x00, 0x04, 0x00,
  0x12, 0x00, 0x00, 0x00, 0x03, 0x00, 0x00, 0x00, 0x08, 0x00, 0x00, 0x00,
  0x14, 0x00, 0x00, 0x00, 0x01, 0x00, 0x00, 0x00, 0x00, 0x00, 0x00, 0x00,
  0x00, 0x00, 0x00, 0x00, 0x00, 0x00, 0x00, 0x00, 0x01, 0x00, 0x00, 0x00,
  0x38, 0x94, 0x1e, 0x3c, 0x60, 0x00, 0x00, 0x00, 0x6d, 0x6f, 0x64, 0x65,
  0x6c, 0x2f, 0x62, 0x6c, 0x6f, 0x63, 0x6b, 0x5f, 0x31, 0x5f, 0x64, 0x77,
  0x5f, 0x62, 0x6e, 0x2f, 0x46, 0x75, 0x73, 0x65, 0x64, 0x42, 0x61, 0x74,
  0x63, 0x68, 0x4e, 0x6f, 0x72, 0x6d, 0x56, 0x33, 0x3b, 0x6d, 0x6f, 0x64,
  0x65, 0x6c, 0x2f, 0x62, 0x6c, 0x6f, 0x63, 0x6b, 0x5f, 0x31, 0x5f, 0x64,
  0x65, 0x70, 0x74, 0x68, 0x77, 0x69, 0x73, 0x65, 0x5f, 0x63, 0x6f, 0x6e,
  0x76, 0x2f, 0x64, 0x65, 0x70, 0x74, 0x68, 0x77, 0x69, 0x73, 0x65, 0x3b,
  0x6d, 0x6f, 0x64, 0x65, 0x6c, 0x2f, 0x63, 0x6f, 0x6e, 0x76, 0x32, 0x64,
  0x2f, 0x43, 0x6f, 0x6e, 0x76, 0x32, 0x44, 0x31, 0x00, 0x00, 0x00, 0x00,
  0x04, 0x00, 0x00, 0x00, 0x01, 0x00, 0x00, 0x00, 0x03, 0x00, 0x00, 0x00,
  0x03, 0x00, 0x00, 0x00, 0x01, 0x00, 0x00, 0x00, 0x1e, 0xff, 0xff, 0xff,
  0x14, 0x00, 0x00, 0x00, 0x30, 0x00, 0x00, 0x00, 0x04, 0x00, 0x00, 0x00,
  0x00, 0x00, 0x00, 0x02, 0x5c, 0x00, 0x00, 0x00, 0x84, 0xfe, 0xff, 0xff,
  0x08, 0x00, 0x00, 0x00, 0x10, 0x00, 0x00, 0x00, 0x01, 0x00, 0x00, 0x00,
  0x00, 0x00, 0x00, 0x00, 0x00, 0x00, 0x00, 0x00, 0x01, 0x00, 0x00, 0x00,
  0xf7, 0x46, 0xbd, 0x37, 0x33, 0x00, 0x00, 0x00, 0x6d, 0x6f, 0x64, 0x65,
  0x6c, 0x2f, 0x63, 0x6f, 0x6e, 0x76, 0x31, 0x5f, 0x62, 0x6e, 0x2f, 0x46,
  0x75, 0x73, 0x65, 0x64, 0x42, 0x61, 0x74, 0x63, 0x68, 0x4e, 0x6f, 0x72,
  0x6d, 0x56, 0x33, 0x3b, 0x6d, 0x6f, 0x64, 0x65, 0x6c, 0x2f, 0x63, 0x6f,
  0x6e, 0x76, 0x32, 0x64, 0x2f, 0x43, 0x6f, 0x6e, 0x76, 0x32, 0x44, 0x00,
  0x01, 0x00, 0x00, 0x00, 0x01, 0x00, 0x00, 0x00, 0x96, 0xff, 0xff, 0xff,
  0x14, 0x00, 0x00, 0x00, 0x34, 0x00, 0x00, 0x00, 0x03, 0x00, 0x00, 0x00,
  0x00, 0x00, 0x00, 0x09, 0x40, 0x00, 0x00, 0x00, 0xfc, 0xfe, 0xff, 0xff,
  0x08, 0x00, 0x00, 0x00, 0x14, 0x00, 0x00, 0x00, 0x01, 0x00, 0x00, 0x00,
  0x00, 0x00, 0x00, 0x00, 0x00, 0x00, 0x00, 0x00, 0x00, 0x00, 0x00, 0x00,
  0x01, 0x00, 0x00, 0x00, 0xf7, 0x46, 0xbd, 0x37, 0x13, 0x00, 0x00, 0x00,
  0x6d, 0x6f, 0x64, 0x65, 0x6c, 0x2f, 0x63, 0x6f, 0x6e, 0x76, 0x32, 0x64,
  0x2f, 0x43, 0x6f, 0x6e, 0x76, 0x32, 0x44, 0x00, 0x04, 0x00, 0x00, 0x00,
  0x01, 0x00, 0x00, 0x00, 0x03, 0x00, 0x00, 0x00, 0x03, 0x00, 0x00, 0x00,
  0x02, 0x00, 0x00, 0x00, 0x00, 0x00, 0x0e, 0x00, 0x18, 0x00, 0x14, 0x00,
  0x13, 0x00, 0x0c, 0x00, 0x08, 0x00, 0x04, 0x00, 0x0e, 0x00, 0x00, 0x00,
  0x18, 0x00, 0x00, 0x00, 0x18, 0x00, 0x00, 0x00, 0x02, 0x00, 0x00, 0x00,
  0x00, 0x00, 0x00, 0x02, 0x44, 0x00, 0x00, 0x00, 0x04, 0x00, 0x04, 0x00,
  0x04, 0x00, 0x00, 0x00, 0x30, 0x00, 0x00, 0x00, 0x6d, 0x6f, 0x64, 0x65,
  0x6c, 0x2f, 0x67, 0x6c, 0x6f, 0x62, 0x61, 0x6c, 0x5f, 0x61, 0x76, 0x65,
  0x72, 0x61, 0x67, 0x65, 0x5f, 0x70, 0x6f, 0x6f, 0x6c, 0x2f, 0x4d, 0x65,
  0x61, 0x6e, 0x2f, 0x72, 0x65, 0x64, 0x75, 0x63, 0x74, 0x69, 0x6f, 0x6e,
  0x5f, 0x69, 0x6e, 0x64, 0x69, 0x63, 0x65, 0x73, 0x00, 0x00, 0x00, 0x00,
  0x01, 0x00, 0x00, 0x00, 0x02, 0x00, 0x00, 0x00, 0x14, 0x00, 0x1c, 0x00,
  0x18, 0x00, 0x17, 0x00, 0x10, 0x00, 0x0c, 0x00, 0x08, 0x00, 0x00, 0x00,
  0x00, 0x00, 0x04, 0x00, 0x14, 0x00, 0x00, 0x00, 0x18, 0x00, 0x00, 0x00,
  0x34, 0x00, 0x00, 0x00, 0x50, 0x00, 0x00, 0x00, 0x01, 0x00, 0x00, 0x00,
  0x00, 0x00, 0x00, 0x09, 0x50, 0x00, 0x00, 0x00, 0x04, 0x00, 0x00, 0x00,
  0xff, 0xff, 0xff, 0xff, 0x60, 0x00, 0x00, 0x00, 0x60, 0x00, 0x00, 0x00,
  0x01, 0x00, 0x00, 0x00, 0x0c, 0x00, 0x0c, 0x00, 0x00, 0x00, 0x00, 0x00,
  0x08, 0x00, 0x04, 0x00, 0x0c, 0x00, 0x00, 0x00, 0x08, 0x00, 0x00, 0x00,
  0x10, 0x00, 0x00, 0x00, 0x01, 0x00, 0x00, 0x00, 0x80, 0xff, 0xff, 0xff,
  0xff, 0xff, 0xff, 0xff, 0x01, 0x00, 0x00, 0x00, 0x00, 0x00, 0x80, 0x3f,
  0x07, 0x00, 0x00, 0x00, 0x69, 0x6e, 0x70, 0x75, 0x74, 0x5f, 0x31, 0x00,
  0x04, 0x00, 0x00, 0x00, 0x01, 0x00, 0x00, 0x00, 0x60, 0x00, 0x00, 0x00,
  0x60, 0x00, 0x00, 0x00, 0x01, 0x00, 0x00, 0x00, 0x09, 0x00, 0x00, 0x00,
  0xbc, 0x00, 0x00, 0x00, 0x9c, 0x00, 0x00, 0x00, 0x88, 0x00, 0x00, 0x00,
  0x74, 0x00, 0x00, 0x00, 0x60, 0x00, 0x00, 0x00, 0x54, 0x00, 0x00, 0x00,
  0x38, 0x00, 0x00, 0x00, 0x18, 0x00, 0x00, 0x00, 0x04, 0x00, 0x00, 0x00,
  0x74, 0xff, 0xff, 0xff, 0x19, 0x00, 0x00, 0x00, 0x02, 0x00, 0x00, 0x00,
  0x00, 0x00, 0x00, 0x19, 0x84, 0xff, 0xff, 0xff, 0x09, 0x00, 0x00, 0x00,
  0x04, 0x00, 0x00, 0x00, 0x00, 0x00, 0x00, 0x09, 0x0c, 0x00, 0x0e, 0x00,
  0x0d, 0x00, 0x00, 0x00, 0x08, 0x00, 0x04, 0x00, 0x0c, 0x00, 0x00, 0x00,
  0x28, 0x00, 0x00, 0x00, 0x02, 0x00, 0x00, 0x00, 0x00, 0x28, 0x0a, 0x00,
  0x08, 0x00, 0x00, 0x00, 0x00, 0x00, 0x04, 0x00, 0x0a, 0x00, 0x00, 0x00,
  0x02, 0x00, 0x00, 0x00, 0xc0, 0xff, 0xff, 0xff, 0x04, 0x00, 0x00, 0x00,
  0x03, 0x00, 0x00, 0x00, 0x00, 0x00, 0x00, 0x04, 0xd0, 0xff, 0xff, 0xff,
  0x03, 0x00, 0x00, 0x00, 0x03, 0x00, 0x00, 0x00, 0x00, 0x00, 0x00, 0x03,
  0xe0, 0xff, 0xff, 0xff, 0x02, 0x00, 0x00, 0x00, 0x02, 0x00, 0x00, 0x00,
  0x00, 0x00, 0x00, 0x02, 0xf0, 0xff, 0xff, 0xff, 0x11, 0x00, 0x00, 0x00,
  0x02, 0x00, 0x00, 0x00, 0x00, 0x00, 0x00, 0x11, 0x0c, 0x00, 0x10, 0x00,
  0x0f, 0x00, 0x00, 0x00, 0x08, 0x00, 0x04, 0x00, 0x0c, 0x00, 0x00, 0x00,
  0x01, 0x00, 0x00, 0x00, 0x02, 0x00, 0x00, 0x00, 0x00, 0x00, 0x00, 0x01
};
const int g_person_detect_model_data_len = 11040;
